<pad>	0
</s>	0
<unk>	0
<extra_id_0>	0
<extra_id_1>	0
<extra_id_2>	0
<extra_id_3>	0
<extra_id_4>	0
<extra_id_5>	0
<extra_id_6>	0
<extra_id_7>	0
<extra_id_8>	0
<extra_id_9>	0
<extra_id_10>	0
<extra_id_11>	0
<extra_id_12>	0
<extra_id_13>	0
<extra_id_14>	0
<extra_id_15>	0
<extra_id_16>	0
<extra_id_17>	0
<extra_id_18>	0
<extra_id_19>	0
<extra_id_20>	0
<extra_id_21>	0
<extra_id_22>	0
<extra_id_23>	0
<extra_id_24>	0
<extra_id_25>	0
<extra_id_26>	0
<extra_id_27>	0
<extra_id_28>	0
<extra_id_29>	0
<extra_id_30>	0
<extra_id_31>	0
<extra_id_32>	0
<extra_id_33>	0
<extra_id_34>	0
<extra_id_35>	0
<extra_id_36>	0
<extra_id_37>	0
<extra_id_38>	0
<extra_id_39>	0
<extra_id_40>	0
<extra_id_41>	0
<extra_id_42>	0
<extra_id_43>	0
<extra_id_44>	0
<extra_id_45>	0
<extra_id_46>	0
<extra_id_47>	0
<extra_id_48>	0
<extra_id_49>	0
<extra_id_50>	0
<extra_id_51>	0
<extra_id_52>	0
<extra_id_53>	0
<extra_id_54>	0
<extra_id_55>	0
<extra_id_56>	0
<extra_id_57>	0
<extra_id_58>	0
<extra_id_59>	0
<extra_id_60>	0
<extra_id_61>	0
<extra_id_62>	0
<extra_id_63>	0
<extra_id_64>	0
<extra_id_65>	0
<extra_id_66>	0
<extra_id_67>	0
<extra_id_68>	0
<extra_id_69>	0
<extra_id_70>	0
<extra_id_71>	0
<extra_id_72>	0
<extra_id_73>	0
<extra_id_74>	0
<extra_id_75>	0
<extra_id_76>	0
<extra_id_77>	0
<extra_id_78>	0
<extra_id_79>	0
<extra_id_80>	0
<extra_id_81>	0
<extra_id_82>	0
<extra_id_83>	0
<extra_id_84>	0
<extra_id_85>	0
<extra_id_86>	0
<extra_id_87>	0
<extra_id_88>	0
<extra_id_89>	0
<extra_id_90>	0
<extra_id_91>	0
<extra_id_92>	0
<extra_id_93>	0
<extra_id_94>	0
<extra_id_95>	0
<extra_id_96>	0
<extra_id_97>	0
<extra_id_98>	0
<extra_id_99>	0
.	-2.88244
(	-3.18749
▁	-3.49783
▁}	-3.68788
)	-3.69048
▁{	-3.70086
,	-3.70266
▁=	-3.93814
);	-3.97662
▁(	-4.19563
_	-4.35117
;	-4.35659
▁if	-4.51004
s	-4.68138
▁return	-4.71674
▁new	-4.93535
();	-5.01091
▁null	-5.04361
▁public	-5.05437
<	-5.05587
▁//	-5.12179
get	-5.16012
>	-5.20361
▁"	-5.33677
("	-5.3479
▁String	-5.35649
▁+	-5.35852
()	-5.47585
String	-5.55443
▁==	-5.59013
Exception	-5.72876
▁int	-5.82192
▁final	-5.8236
▁the	-5.84742
().	-5.87816
▁for	-5.90088
▁this	-5.91065
▁void	-5.92905
())	-5.936
▁!=	-5.95606
:	-6.00389
▁else	-6.03483
i	-6.0368
());	-6.0552
▁i	-6.06939
▁e	-6.08947
▁to	-6.10381
");	-6.10703
▁throw	-6.10744
▁@	-6.12008
(),	-6.1232
▁static	-6.13655
Type	-6.15609
[	-6.17131
",	-6.18084
▁get	-6.28029
Name	-6.29071
▁:	-6.30762
set	-6.32283
▁&&	-6.3956
▁throws	-6.40259
[]	-6.41061
add	-6.43303
▁is	-6.46483
T	-6.46826
length	-6.47931
▁try	-6.48402
▁<	-6.48848
Id	-6.51244
))	-6.51513
List	-6.54161
▁m	-6.54176
▁catch	-6.55329
Override	-6.58631
int	-6.59161
▁a	-6.59272
d	-6.62056
new	-6.63942
▁boolean	-6.65334
));	-6.654
append	-6.65741
▁result	-6.70573
this	-6.72591
2	-6.74143
m	-6.75967
▁-	-6.76593
▁List	-6.76924
▁value	-6.77903
final	-6.78287
e	-6.78728
▁private	-6.78869
is	-6.80068
Request	-6.8036
▁0;	-6.81439
t	-6.8226
Value	-6.83748
ed	-6.85284
▁Object	-6.85397
Map	-6.86197
ing	-6.86339
▁case	-6.86524
n	-6.86803
-	-6.87873
'	-6.90694
class	-6.90813
▁false	-6.92897
S	-6.9365
Object	-6.94728
||	-6.96116
Class	-6.96285
▁in	-6.96833
▁true	-6.97297
▁set	-6.98603
r	-7.00159
File	-7.00663
▁*	-7.00709
a	-7.02644
x	-7.03525
c	-7.04136
/	-7.04408
]	-7.05367
▁(!	-7.06188
▁0)	-7.06755
▁request	-7.06964
Data	-7.1019
1	-7.10251
name	-7.1133
size	-7.12318
▁not	-7.12848
equals	-7.12883
Node	-7.134
To	-7.1468
put	-7.17135
▁of	-7.17343
Context	-7.17813
Path	-7.18408
Key	-7.18716
otocolMarshaller	-7.18904
▁be	-7.19924
toString	-7.20021
▁name	-7.2063
▁0	-7.21324
Index	-7.21895
Info	-7.22313
▁double	-7.26763
▁type	-7.28475
▁?	-7.28659
value	-7.31194
▁IOException	-7.31659
▁pr	-7.33613
▁long	-7.366
▁key	-7.36881
▁and	-7.373
▁break	-7.38205
▁instanceof	-7.39135
▁p	-7.39285
▁create	-7.39579
D	-7.40651
▁c	-7.41125
er	-7.41308
key	-7.41905
++)	-7.4215
g	-7.43862
ID	-7.44312
y	-7.44534
Set	-7.46046
▁>	-7.46186
getName	-7.4707
f	-7.48067
▁protected	-7.48069
p	-7.48152
"	-7.489
type	-7.49975
Element	-7.50447
Builder	-7.50451
id	-7.50667
null	-7.50716
=	-7.50947
A	-7.51213
Factory	-7.51307
▁add	-7.52099
b	-7.52152
Config	-7.53003
Entry	-7.53192
▁while	-7.53473
▁it	-7.54731
Message	-7.5562
marshall	-7.55889
3	-7.5628
▁data	-7.56678
▁file	-7.56842
▁Map	-7.57911
rgumentException	-7.58374
")	-7.58405
C	-7.58861
▁response	-7.58896
o	-7.59205
▁IllegalA	-7.59738
▁list	-7.60088
v	-7.60132
Response	-7.60366
>>	-7.60484
▁t	-7.60808
▁we	-7.61215
BINDING	-7.61513
create	-7.6352
▁T	-7.63949
▁path	-7.64074
▁ArrayList	-7.65367
Field	-7.65575
Result	-7.65927
State	-7.66301
Size	-7.66333
▁index	-7.66378
L	-7.67435
Count	-7.68447
▁byte	-7.685
I	-7.70377
];	-7.70807
X	-7.71556
▁b	-7.72117
debug	-7.72134
▁sb	-7.72288
▁File	-7.73185
▁s	-7.73432
request	-7.74311
E	-7.75274
▁with	-7.75283
▁j	-7.7529
▁System	-7.75604
to	-7.75719
Configuration	-7.75832
▁!	-7.76347
▁start	-7.7667
▁n	-7.76694
R	-7.76731
▁from	-7.77215
<>(	-7.77316
▁r	-7.77381
Service	-7.77433
Manager	-7.7771
In	-7.77778
Utils	-7.78665
F	-7.78921
▁log	-7.78932
▁out	-7.78957
Resource	-7.80811
▁Class	-7.80876
j	-7.817
in	-7.82002
▁x	-7.83234
isEmpty	-7.83489
B	-7.83767
▁marshall	-7.83927
Method	-7.84189
Handler	-7.85261
With	-7.85675
▁context	-7.8577
▁current	-7.86692
Async	-7.868
next	-7.86823
▁node	-7.87106
able	-7.87954
index	-7.88121
k	-7.88306
out	-7.88582
Event	-7.88748
▁_	-7.89393
P	-7.90609
getMessage	-7.90912
Property	-7.91625
▁check	-7.9174
From	-7.92323
▁logger	-7.92773
data	-7.93063
Client	-7.93625
ServiceResponse	-7.94509
For	-7.94925
▁on	-7.94944
4	-7.95432
▁field	-7.95448
tc	-7.95477
▁1	-7.95815
error	-7.96137
Constants	-7.96963
Filter	-7.97918
<?>	-7.98096
▁1)	-7.98262
Group	-7.9973
▁Integer	-7.99882
▁input	-8.00216
▁StringBuilder	-8.00536
";	-8.00634
Time	-8.01057
▁entry	-8.01109
▁method	-8.01109
Parameter	-8.01204
Array	-8.01574
▁I	-8.01625
▁tc	-8.01763
▁+=	-8.01805
getValue	-8.02002
Error	-8.0219
Enabled	-8.02645
▁id	-8.03591
▁>=	-8.03761
remove	-8.04052
Stream	-8.04136
▁target	-8.04169
u	-8.04569
++	-8.05785
V	-8.06055
▁buffer	-8.06528
▁message	-8.06532
▁end	-8.07194
▁extends	-8.0787
Impl	-8.08002
▁o	-8.08281
▁super	-8.08446
▁read	-8.08855
Util	-8.08922
▁ex	-8.09389
Item	-8.09403
▁'	-8.09583
Listener	-8.09967
write	-8.10003
l	-8.10136
Table	-8.1026
▁0,	-8.103
Cache	-8.10375
▁default	-8.10582
▁that	-8.10947
Properties	-8.11533
true	-8.11549
Status	-8.11568
▁str	-8.11584
file	-8.11986
substring	-8.12053
info	-8.12621
path	-8.12647
▁->	-8.12834
Text	-8.13445
▁/	-8.13545
▁f	-8.13617
▁do	-8.13795
NAME	-8.13862
Buffer	-8.13869
format	-8.14009
h	-8.14189
▁max	-8.14271
Model	-8.15097
log	-8.15171
Integer	-8.15252
K	-8.1528
▁service	-8.15418
▁state	-8.15507
▁v	-8.15509
▁Set	-8.15899
▁builder	-8.16006
Level	-8.16216
Query	-8.16839
Page	-8.17251
N	-8.17281
.");	-8.1766
▁resource	-8.18462
▁map	-8.18653
w	-8.19104
▁update	-8.19156
Length	-8.19173
▁&	-8.19371
map	-8.20636
View	-8.20677
"))	-8.20681
start	-8.20771
Url	-8.20859
println	-8.20975
▁SdkClient	-8.21152
▁source	-8.2118
Date	-8.21546
G	-8.21685
Connection	-8.21706
result	-8.21965
▁synchronized	-8.22735
▁size	-8.22756
▁query	-8.22905
And	-8.2299
▁all	-8.23229
Instance	-8.23424
▁1;	-8.23549
Y	-8.23763
Inner	-8.23845
build	-8.24099
Attribute	-8.24133
entry	-8.24599
▁as	-8.24761
By	-8.2492
read	-8.25139
al	-8.25919
Expression	-8.26055
node	-8.26064
Code	-8.26226
▁first	-8.264
▁has	-8.26833
[0]	-8.27107
▁next	-8.27224
O	-8.27578
Token	-8.27782
▁object	-8.2792
▁LOG	-8.28127
▁finally	-8.28201
*	-8.28606
Number	-8.28629
on	-8.29669
M	-8.29786
Options	-8.29948
()))	-8.29981
▁obj	-8.30085
▁y	-8.30201
client	-8.3022
▁java	-8.30257
Invalid	-8.30297
▁msg	-8.30299
Collection	-8.30395
0	-8.30479
▁count	-8.30499
close	-8.30797
▁d	-8.31173
TYPE	-8.31241
Callback	-8.31308
byte	-8.32046
▁write	-8.32123
Version	-8.32224
Of	-8.3259
▁<=	-8.32632
()));	-8.32845
▁an	-8.32917
▁%	-8.3292
){	-8.33041
contains	-8.33248
▁are	-8.33329
input	-8.33826
▁url	-8.34086
1,	-8.34161
▁|	-8.34535
▁*/	-8.34647
▁ret	-8.34663
TracingEnabled	-8.34678
▁last	-8.34858
isAny	-8.3497
Dir	-8.35213
Provider	-8.35501
Source	-8.36126
▁or	-8.36288
<?	-8.36456
▁element	-8.36747
Offset	-8.36827
▁config	-8.36831
Task	-8.37012
▁Exception	-8.37625
current	-8.37805
▁find	-8.38053
or	-8.38122
list	-8.38464
TraceComponent	-8.38807
Start	-8.39069
Writer	-8.39644
▁values	-8.40103
▁offset	-8.4016
User	-8.40687
H	-8.41004
str	-8.4112
IOException	-8.41206
▁parent	-8.41322
util	-8.41545
Header	-8.41788
Line	-8.4179
▁parse	-8.41971
▁switch	-8.42051
▁remove	-8.42494
▁Math	-8.43492
getClass	-8.43555
▁call	-8.43669
▁length	-8.4465
Content	-8.44675
Session	-8.44798
▁class	-8.44919
z	-8.44994
Column	-8.45447
Base	-8.45913
▁com	-8.46008
Point	-8.46129
▁output	-8.46253
▁event	-8.46281
long	-8.46418
].	-8.46552
▁l	-8.46761
Rule	-8.46853
▁/*	-8.47015
URL	-8.47093
Job	-8.47129
▁float	-8.4743
Entity	-8.4753
source	-8.47766
Position	-8.47837
Reader	-8.4797
Execution	-8.4797
RuntimeException	-8.48001
Action	-8.48057
max	-8.48215
▁have	-8.48591
isEntry	-8.48834
▁array	-8.48851
▁Observable	-8.48911
▁k	-8.49097
▁no	-8.49457
URI	-8.49473
Tree	-8.49556
U	-8.49704
Bytes	-8.4976
java	-8.4979
getKey	-8.4994
▁h	-8.5002
esourceGroupName	-8.50278
InputStream	-8.50555
Unable	-8.50582
re	-8.50615
W	-8.50734
▁session	-8.50753
Function	-8.50921
▁text	-8.50923
Package	-8.51005
Mode	-8.51761
▁buf	-8.52686
Definition	-8.52817
Server	-8.5285
▁line	-8.53056
ly	-8.53103
▁re	-8.53111
▁error	-8.53532
▁must	-8.53861
context	-8.54391
Container	-8.54801
Helper	-8.54817
SuppressWarnings	-8.55081
End	-8.552
▁args	-8.55266
▁V	-8.55313
Ref	-8.55599
Str	-8.55889
Values	-8.55947
has	-8.56079
▁client	-8.56408
service	-8.56488
Long	-8.56518
▁char	-8.56867
▁user	-8.56953
Operation	-8.57063
▁params	-8.5728
field	-8.57287
Or	-8.57532
end	-8.57544
▁can	-8.57588
Tag	-8.57632
▁other	-8.57879
▁row	-8.57926
▁argument	-8.5834
Descriptor	-8.58438
min	-8.58635
▁HashMap	-8.58778
▁cannot	-8.58845
Image	-8.58892
▁found	-8.59008
Pattern	-8.59454
Log	-8.59566
▁by	-8.59657
▁C	-8.59701
▁writer	-8.59782
Bean	-8.598
from	-8.59886
▁root	-8.60047
Location	-8.60051
Reference	-8.60617
Address	-8.60878
Metadata	-8.60925
resource	-8.60961
▁connection	-8.61146
▁continue	-8.61175
valueOf	-8.61209
Registry	-8.61213
▁filter	-8.61323
▁old	-8.61334
▁min	-8.61787
▁property	-8.6194
(0,	-8.62334
stream	-8.62388
Component	-8.62785
hasNext	-8.62946
state	-8.63078
Update	-8.63247
Types	-8.63475
KEY	-8.63612
▁Tr	-8.63775
▁before	-8.63953
On	-8.641
of	-8.64231
▁content	-8.64383
Parameters	-8.64429
text	-8.64556
▁JSON	-8.6464
All	-8.6474
Iterator	-8.65223
Row	-8.65393
Block	-8.66363
iterator	-8.66456
▁val	-8.66554
▁Long	-8.67192
▁base	-8.67314
?	-8.6732
System	-8.67496
line	-8.67669
isDebugEnabled	-8.67746
ch	-8.67875
q	-8.67883
▁Collection	-8.67991
response	-8.68158
8	-8.68239
▁sub	-8.68334
Template	-8.68344
Input	-8.68461
es	-8.68499
Document	-8.68654
▁properties	-8.68753
▁A	-8.68766
▁so	-8.68782
J	-8.6884
Channel	-8.68957
buffer	-8.6904
target	-8.69264
▁len	-8.69621
▁will	-8.69827
▁time	-8.70142
▁required	-8.70282
0);	-8.70356
Record	-8.70392
▁cache	-8.70445
▁Boolean	-8.70488
\	-8.70608
indexOf	-8.70664
getId	-8.70703
Param	-8.71096
false	-8.71134
Option	-8.71166
pos	-8.712
Range	-8.71279
as	-8.71734
▁one	-8.71895
▁clazz	-8.71916
config	-8.71932
▁token	-8.72285
▁model	-8.72478
▁exception	-8.72565
Annotation	-8.72634
▁use	-8.72642
Width	-8.72844
▁SibTr	-8.72983
64	-8.73104
body	-8.73366
message	-8.73751
▁process	-8.73767
5	-8.7391
object	-8.73984
Output	-8.743
▁string	-8.74308
▁S	-8.74408
Get	-8.7447
Policy	-8.74597
url	-8.74619
Target	-8.74764
▁parameters	-8.7477
method	-8.75152
▁delete	-8.75249
No	-8.75274
Names	-8.75405
Command	-8.75531
event	-8.75654
▁Cms	-8.75661
▁pos	-8.75695
▁stream	-8.7581
▁w	-8.7588
update	-8.75916
getType	-8.76562
{	-8.76799
Parser	-8.77117
▁item	-8.77243
▁table	-8.77245
Cms	-8.7736
exit	-8.77491
+	-8.775
▁should	-8.77689
1.	-8.7779
Format	-8.77807
▁If	-8.77846
▁build	-8.7842
charAt	-8.78433
▁assert	-8.78775
Double	-8.79101
▁options	-8.79436
Char	-8.79497
Lock	-8.79599
▁src	-8.79705
▁g	-8.80385
Params	-8.80509
Mapping	-8.80564
▁format	-8.806
with	-8.8107
VALUE	-8.81077
startsWith	-8.81079
▁num	-8.8112
Nullable	-8.81139
▁passed	-8.812
Access	-8.81773
▁dest	-8.81814
▁instance	-8.81894
table	-8.82027
▁Double	-8.82061
it	-8.82079
▁LOGGER	-8.8212
warn	-8.82158
▁code	-8.82177
clear	-8.82322
▁match	-8.82668
getInstance	-8.82725
▁version	-8.83428
Boolean	-8.83544
Queue	-8.83804
▁E	-8.84043
parent	-8.84928
addAll	-8.85119
As	-8.85192
offset	-8.85227
getProperty	-8.85638
OutputStream	-8.85815
▁was	-8.86022
="	-8.86297
▁bytes	-8.86367
Call	-8.86795
Messages	-8.86881
▁child	-8.87126
▁job	-8.87149
▁Pr	-8.8716
▁res	-8.87191
▁at	-8.87622
First	-8.87697
▁IllegalState	-8.8779
▁run	-8.87806
▁only	-8.87822
unchecked	-8.8794
group	-8.88169
▁R	-8.88265
▁image	-8.88281
Sub	-8.8832
The	-8.88387
values	-8.88968
▁task	-8.89204
Link	-8.89231
(...)	-8.89235
▁column	-8.89372
▁server	-8.89476
6	-8.89478
ion	-8.8956
Def	-8.89581
user	-8.89662
Json	-8.89711
obj	-8.89936
Pos	-8.8995
(@	-8.90085
Directory	-8.90163
at	-8.90224
Label	-8.90231
[1]	-8.90327
Int	-8.90433
filter	-8.90925
ation	-8.91274
▁already	-8.91372
count	-8.91782
ED	-8.9194
delete	-8.91944
▁load	-8.92021
2,	-8.92152
Attributes	-8.92214
find	-8.92459
▁-1)	-8.92503
query	-8.92525
Keys	-8.92599
Wrapper	-8.92749
Fields	-8.92888
Throwable	-8.93715
Style	-8.93776
▁handle	-8.942
"));	-8.94281
Store	-8.94547
Failed	-8.94741
Transaction	-8.94771
▁un	-8.94779
▁{}	-8.95039
▁init	-8.96188
Read	-8.96195
▁configuration	-8.96197
IN	-8.96422
▁Iterator	-8.9683
▁group	-8.96968
EClass	-8.97212
Root	-8.97297
▁need	-8.97656
trim	-8.97677
Default	-8.97792
Settings	-8.97897
▁local	-8.98059
Uri	-8.9819
▁header	-8.98295
▁reader	-8.98342
▁entity	-8.9857
▁Node	-8.98572
▁copy	-8.98732
Match	-8.98789
Thread	-8.99392
Prefix	-8.99417
ex	-8.99578
▁attribute	-8.99891
Color	-8.99973
LA	-9.00389
Button	-9.00842
Doc	-9.00951
ic	-9.00992
If	-9.01021
double	-9.01255
Application	-9.0131
un	-9.01311
Ids	-9.01338
▁Type	-9.01551
▁P	-9.01722
ll	-9.01851
containsKey	-9.0186
▁J	-9.0191
▁-1;	-9.01966
▁execute	-9.02063
split	-9.02184
▁Collections	-9.02398
▁tmp	-9.02437
parse	-9.03166
▁date	-9.03355
▁{}",	-9.0347
Calendar	-9.03489
Port	-9.03516
▁Get	-9.03593
DEFAULT	-9.03927
▁but	-9.03972
▁2	-9.04194
▁uri	-9.04354
▁component	-9.04701
com	-9.04773
At	-9.04927
Interface	-9.04967
▁listener	-9.05
Schema	-9.05057
Scope	-9.05134
equalsIgnoreCase	-9.05185
▁sql	-9.05445
org	-9.0545
INSTANCE	-9.05451
msg	-9.05683
▁Optional	-9.05688
▁block	-9.05695
args	-9.05817
>()	-9.05829
Resources	-9.05882
▁record	-9.06091
▁status	-9.06329
▁q	-9.06599
▁arg	-9.06763
Description	-9.06813
▁lock	-9.06878
Vector	-9.06905
code	-9.0706
▁number	-9.0749
▁page	-9.07661
New	-9.07707
▁any	-9.0802
root	-9.08046
Order	-9.08182
%	-9.08288
element	-9.08349
2);	-9.08554
Adapter	-9.08637
2.	-9.08775
Z	-9.08812
▁Date	-9.09028
if	-9.09056
session	-9.09146
check	-9.09513
entrySet	-9.09861
Files	-9.10455
▁json	-9.10702
▁left	-9.10992
time	-9.11141
▁'"	-9.11165
item	-9.11286
▁URL	-9.11333
::	-9.11378
2)	-9.11742
Segment	-9.1199
▁empty	-9.12105
Future	-9.12147
▁parameter	-9.12162
Locale	-9.12455
token	-9.12631
Parent	-9.12844
array	-9.12957
Unit	-9.12981
err	-9.13043
last	-9.13089
trace	-9.13163
val	-9.1319
▁view	-9.132
]);	-9.13387
Next	-9.1339
base	-9.13454
Local	-9.13592
SIZE	-9.13598
Handle	-9.13705
Project	-9.13808
ar	-9.13875
Len	-9.1415
channel	-9.14342
row	-9.14736
Pool	-9.14802
▁param	-9.14878
▁ch	-9.1488
▁X	-9.15385
10	-9.15716
ERROR	-9.15813
src	-9.15863
instance	-9.15896
Nonnull	-9.15995
replace	-9.16033
▁The	-9.16043
▁N	-9.1607
st	-9.16089
▁point	-9.1629
▁total	-9.16611
Check	-9.16863
Generator	-9.16914
Converter	-9.17033
DB	-9.17058
==	-9.1723
Internal	-9.17278
position	-9.17295
Out	-9.17297
32	-9.17481
▁tag	-9.17548
▁Method	-9.17593
Un	-9.17622
execute	-9.17706
model	-9.17829
▁close	-9.17878
▁1]	-9.17925
▁handler	-9.18059
Part	-9.18142
num	-9.1817
▁width	-9.18221
▁StringBuffer	-9.18396
▁then	-9.18866
Delete	-9.18949
▁<<	-9.19154
".	-9.19262
sub	-9.19346
▁++	-9.1945
▁resources	-9.19548
MAX	-9.19727
▁O	-9.19799
Num	-9.19832
width	-9.1988
Consumer	-9.19978
rderByComparator	-9.20054
▁up	-9.20382
▁callback	-9.20493
Host	-9.20536
NonNull	-9.20562
▁command	-9.20628
clazz	-9.20697
Msg	-9.2074
Not	-9.20753
▁InputStream	-9.20827
LOG	-9.20847
▁right	-9.21106
Timeout	-9.21249
Obj	-9.2127
first	-9.21346
Height	-9.21473
Frame	-9.21474
▁B	-9.21475
no	-9.21526
▁info	-9.21589
Bundle	-9.21682
▁search	-9.21683
getString	-9.21846
1);	-9.2214
Chain	-9.22248
init	-9.22279
print	-9.22653
▁Thread	-9.22854
Control	-9.2312
GET	-9.23221
Search	-9.23244
▁HashSet	-9.23408
▁rule	-9.23415
XML	-9.23516
lang	-9.23729
▁position	-9.23739
Elements	-9.23742
▁fields	-9.23756
▁temp	-9.23802
lock	-9.23858
internal	-9.24046
Xml	-9.24055
▁H	-9.24228
▁now	-9.24228
Processor	-9.24255
▁action	-9.24447
Stack	-9.24471
char	-9.24888
").	-9.24922
ClassName	-9.24944
Re	-9.25013
Spec	-9.25023
Identifier	-9.25322
▁there	-9.2546
http	-9.25479
▁generate	-9.25545
▁ref	-9.2563
▁xml	-9.25706
Create	-9.25722
do	-9.25932
buf	-9.25962
load	-9.25969
ING	-9.26127
▁when	-9.26395
Variable	-9.26442
string	-9.26576
▁thread	-9.26734
Certificate	-9.26911
▁1,	-9.26935
property	-9.27138
▁channel	-9.27161
▁register	-9.27178
Val	-9.27267
("\	-9.27326
7	-9.27327
SQL	-9.27358
Headers	-9.27442
▁locale	-9.27444
▁order	-9.2745
▁does	-9.27624
Body	-9.27678
Var	-9.27953
Statement	-9.27988
Math	-9.28012
Proxy	-9.28013
server	-9.2811
App	-9.28525
Interval	-9.28756
exists	-9.2878
▁This	-9.2887
Hash	-9.29088
ClassLoader	-9.29171
register	-9.29387
matcher	-9.29479
▁pattern	-9.29591
default	-9.29702
an	-9.29898
len	-9.29912
tag	-9.30091
le	-9.30325
sql	-9.30373
▁db	-9.30432
▁height	-9.30572
float	-9.30703
Notification	-9.30728
▁container	-9.30749
Executor	-9.30752
content	-9.30773
Module	-9.308
▁send	-9.3095
job	-9.31025
RE	-9.31035
▁D	-9.31066
\\	-9.31158
▁req	-9.31253
Extension	-9.31352
▁make	-9.31369
builder	-9.31607
json	-9.31613
Folder	-9.31625
Logger	-9.31736
Write	-9.31805
Child	-9.31898
▁function	-9.31917
Matrix	-9.32152
Change	-9.32316
Process	-9.32317
!	-9.32427
Feature	-9.32526
Tags	-9.32731
Last	-9.32833
param	-9.32909
(!	-9.33006
Byte	-9.33133
▁validate	-9.33301
Enum	-9.33395
logger	-9.33453
open	-9.33641
▁Func	-9.33725
Panel	-9.33818
▁prefix	-9.34046
▁4	-9.3407
ArrayList	-9.34141
Layout	-9.34184
task	-9.34264
▁convert	-9.34472
ur	-9.34525
Summary	-9.34553
old	-9.34603
Counter	-9.34822
++]	-9.3493
Form	-9.35105
sRequest	-9.35246
Void	-9.35346
11	-9.35352
▁host	-9.35409
entity	-9.35467
cache	-9.35633
▁after	-9.35801
▁non	-9.35822
Sequence	-9.35838
properties	-9.35866
date	-9.35978
▁been	-9.36156
▁props	-9.36211
image	-9.36308
Character	-9.36329
Idx	-9.36422
ER	-9.36543
Auth	-9.36563
▁2)	-9.36675
▁"'	-9.36688
Max	-9.36692
00	-9.36973
pli	-9.37018
invoke	-9.37022
connection	-9.37107
Device	-9.37236
1<	-9.37296
Destination	-9.37471
▁hash	-9.3758
resources	-9.37588
NO	-9.37634
▁L	-9.37727
Http	-9.37729
en	-9.37903
output	-9.38039
status	-9.38202
Args	-9.38269
▁document	-9.3832
▁which	-9.38373
Endpoint	-9.38388
xml	-9.38449
validate	-9.38532
▁Element	-9.38595
ent	-9.38613
newInstance	-9.38674
▁label	-9.38697
Repository	-9.38719
▁"+	-9.39571
other	-9.39678
▁annotation	-9.397
▁z	-9.39779
Resolver	-9.39819
▁""	-9.39839
▁attributes	-9.40011
Password	-9.40013
FILE	-9.4016
ele	-9.40397
▁We	-9.4082
rs	-9.41059
getPath	-9.41148
StringUtils	-9.41222
▁resolve	-9.41265
▁col	-9.41353
NotNull	-9.41372
boolean	-9.41497
Cluster	-9.41879
Entries	-9.41906
NOT	-9.41956
▁"/	-9.41959
▁Arrays	-9.42104
Stats	-9.42123
Member	-9.42368
▁Create	-9.4247
Is	-9.42627
UTF	-9.42709
Argument	-9.42752
Mapper	-9.42768
idx	-9.42775
▁DB	-9.42807
notNull	-9.42965
uri	-9.43026
exception	-9.43028
▁template	-9.4324
toArray	-9.43288
Dialog	-9.43399
db	-9.43573
▁Check	-9.43632
▁valid	-9.4364
Api	-9.43727
▁-1	-9.4383
column	-9.44053
Graph	-9.44106
▁Abstract	-9.44139
▁conn	-9.44175
▁results	-9.44258
(1);	-9.44274
=0;	-9.44287
▁destination	-9.44597
matches	-9.44641
api	-9.44642
Pair	-9.44729
▁limit	-9.44878
Limit	-9.45005
Edge	-9.45142
▁files	-9.45317
▁TODO	-9.45356
Current	-9.45448
ref	-9.45668
Engine	-9.4578
▁directory	-9.45939
Nodes	-9.46033
printStackTrace	-9.46034
NON	-9.46076
keySet	-9.46097
▁G	-9.46184
record	-9.46192
!"	-9.46337
▁scope	-9.46437
bPackage	-9.46563
▁put	-9.46743
header	-9.46745
ip	-9.46817
Classes	-9.4684
Role	-9.46949
▁ignore	-9.46994
getParent	-9.47176
all	-9.47225
▁resp	-9.47298
▁defaultValue	-9.4736
action	-9.47541
page	-9.47549
▁port	-9.47785
version	-9.47846
Cannot	-9.48106
Copy	-9.4812
▁ctx	-9.48259
Java	-9.48288
child	-9.4829
▁ServiceFuture	-9.48374
▁Path	-9.48507
▁iter	-9.486
el	-9.486
▁Point	-9.48666
Batch	-9.48671
▁Response	-9.48692
▁Log	-9.48695
▁same	-9.48744
▁stop	-9.48745
urrentTimeMillis	-9.48814
up	-9.48875
Desc	-9.48902
▁address	-9.48918
Report	-9.49031
arg	-9.49069
bytes	-9.49075
12	-9.49153
Add	-9.4933
process	-9.49418
▁SQLException	-9.49421
host	-9.49442
/{	-9.49532
▁factory	-9.49628
▁store	-9.49777
label	-9.49831
▁may	-9.49844
▁option	-9.49944
Strategy	-9.49975
Database	-9.49985
Script	-9.50203
google	-9.5022
1)	-9.50266
getAttribute	-9.50318
view	-9.50325
▁keys	-9.50508
▁queue	-9.5059
▁future	-9.50693
Optional	-9.50777
block	-9.50837
▁dir	-9.50839
▁than	-9.50866
Null	-9.50955
▁doc	-9.50973
▁provider	-9.5112
▁failed	-9.51157
[2]	-9.51182
Meta	-9.51265
▁org	-9.51399
▁bundle	-9.51431
▁F	-9.51435
Activity	-9.5144
av	-9.51457
▁original	-9.5161
▁iterator	-9.51694
res	-9.51706
▁expected	-9.51716
▁don	-9.51736
Environment	-9.51746
Cell	-9.51977
Bounds	-9.51989
Network	-9.52074
▁Field	-9.52169
▁Af	-9.52201
▁bean	-9.52386
Results	-9.5242
binding	-9.5254
▁ByteArray	-9.52555
▁className	-9.52583
!=	-9.52617
▁app	-9.52635
apply	-9.52731
amazonaws	-9.5282
+"	-9.53114
UUID	-9.53142
empty	-9.53208
\"	-9.53242
Step	-9.53291
left	-9.53386
Encoding	-9.53421
▁Vector	-9.53519
Listeners	-9.53666
Left	-9.5368
arraycopy	-9.53715
Details	-9.53915
▁expression	-9.53966
Html	-9.53986
Condition	-9.54115
TIME	-9.54125
▁here	-9.54147
call	-9.54223
failed	-9.54546
TO	-9.54807
Account	-9.54865
▁timeout	-9.54904
Matcher	-9.54909
featureID	-9.55025
:"	-9.55029
▁methodName	-9.55081
▁reference	-9.5512
▁used	-9.55185
Select	-9.55197
Namespace	-9.5532
Flow	-9.55506
Symbol	-9.55588
After	-9.55947
▁just	-9.5597
▁elements	-9.55996
▁Resource	-9.56144
toLowerCase	-9.56179
component	-9.56254
▁schema	-9.56339
▁0.0	-9.56405
prefix	-9.5641
policy	-9.5646
▁operation	-9.56497
sort	-9.5682
▁Query	-9.56883
Window	-9.57048
▁idx	-9.57088
▁project	-9.57129
parseInt	-9.57193
endsWith	-9.57327
▁test	-9.57392
local	-9.57426
container	-9.57475
▁into	-9.57517
▁cluster	-9.57568
▁URI	-9.57597
)));	-9.57643
op	-9.57751
▁open	-9.57772
asList	-9.57778
getSimpleName	-9.5782
0,	-9.57934
VERSION	-9.58001
_0	-9.58074
▁tree	-9.58194
Distance	-9.58404
Sql	-9.58483
iv	-9.58514
▁cause	-9.58729
Word	-9.58756
dir	-9.58794
link	-9.58858
16	-9.58951
Space	-9.58956
io	-9.59063
▁application	-9.5908
▁"/"	-9.59097
Import	-9.5911
][	-9.59159
SdkInternal	-9.59167
ms	-9.59531
attr	-9.59629
net	-9.59636
://	-9.59681
▁Function	-9.59805
▁fileName	-9.60166
height	-9.60223
▁M	-9.60287
--;	-9.6044
Post	-9.60443
TAG	-9.60521
JSON	-9.60562
Loader	-9.60591
▁because	-9.6062
CLASS	-9.60727
▁location	-9.60768
limit	-9.60786
▁serviceName	-9.6106
Groups	-9.61138
Holder	-9.6121
getField	-9.61404
Region	-9.61458
tree	-9.61527
qPath	-9.61563
Identity	-9.61627
Failure	-9.61684
▁Throwable	-9.61831
right	-9.61841
isAssignableFrom	-9.62011
▁more	-9.62078
20	-9.62148
▁body	-9.62184
Missing	-9.62262
▁split	-9.62574
▁level	-9.62575
Abstract	-9.62639
STRING	-9.62743
Op	-9.62784
Blocking	-9.62798
Menu	-9.62859
▁statement	-9.6287
▁matcher	-9.63182
Metric	-9.63187
PROPERTY	-9.63222
Pre	-9.6326
Permission	-9.63359
ALL	-9.63418
Category	-9.63534
▁Page	-9.63562
▁skip	-9.63772
▁pre	-9.63797
Profile	-9.63825
▁parser	-9.63846
▁ele	-9.63952
nitro	-9.63956
NLS	-9.6398
▁previous	-9.6408
▁print	-9.64099
Ifc	-9.64153
Controller	-9.64279
th	-9.6434
▁style	-9.64434
Arg	-9.64473
project	-9.64516
Case	-9.64612
Term	-9.64698
▁range	-9.64732
▁password	-9.64927
SET	-9.64961
▁link	-9.65053
Memory	-9.65245
▁compute	-9.65349
Items	-9.65504
Snapshot	-9.65563
ad	-9.65575
handle	-9.65625
▁remote	-9.65731
the	-9.65773
▁existing	-9.65777
▁Stream	-9.65796
Selector	-9.65876
▁each	-9.66078
▁change	-9.66173
▁collection	-9.66374
MetaData	-9.66451
us	-9.66578
Load	-9.66669
Protocol	-9.66811
▁report	-9.66822
ment	-9.66909
▁prev	-9.66917
▁NoSuch	-9.67055
Serializer	-9.67062
Algorithm	-9.67452
▁trace	-9.67456
Security	-9.67611
▁Default	-9.67642
(1)	-9.67644
Only	-9.68067
▁Json	-9.68147
requireNonNull	-9.68267
run	-9.68395
getE	-9.68441
▁second	-9.68518
▁transaction	-9.68527
Tokens	-9.68622
▁select	-9.68717
▁frame	-9.68827
return	-9.68848
Close	-9.6902
Attr	-9.69223
▁extract	-9.69254
Predicate	-9.694
(0)	-9.69431
▁begin	-9.69661
Vertex	-9.69718
▁W	-9.69748
▁rs	-9.69772
Web	-9.69882
Could	-9.69902
Non	-9.69987
cms	-9.7007
▁insert	-9.70081
attribute	-9.70146
Required	-9.70301
▁apply	-9.70439
▁description	-9.70459
Columns	-9.70515
Operator	-9.70542
PREFIX	-9.70552
}	-9.70623
Scale	-9.70661
▁segment	-9.70721
Binding	-9.70749
IS	-9.70758
Expr	-9.70776
▁metadata	-9.70837
point	-9.70847
options	-9.70929
▁initialize	-9.71048
Q	-9.71067
getMax	-9.71098
OR	-9.71135
im	-9.71179
Usage	-9.71315
Timestamp	-9.71333
▁//$	-9.71379
Validation	-9.71453
▁back	-9.71482
▁ID	-9.71515
▁unit	-9.71667
port	-9.71722
▁mapping	-9.71822
configuration	-9.71829
▁K	-9.71832
▁save	-9.7184
Before	-9.71868
Remote	-9.71935
▁alt	-9.71979
sb	-9.71996
<?>>	-9.72002
params	-9.72085
POST	-9.72206
▁Message	-9.72253
▁short	-9.72325
Constant	-9.72329
Layer	-9.72399
transform	-9.72404
FIELD	-9.72571
DATA	-9.72843
▁stack	-9.72888
NotFound	-9.73045
encode	-9.73103
▁encoding	-9.7311
getBytes	-9.73123
Db	-9.733
API	-9.73382
className	-9.73433
Icon	-9.73523
▁work	-9.73539
Storage	-9.73636
One	-9.73737
writer	-9.73905
Custom	-9.73947
Comment	-9.7396
req	-9.73995
DateTime	-9.74001
▁database	-9.74006
Bucket	-9.74014
ap	-9.74083
order	-9.74127
Metrics	-9.74159
generate	-9.74192
col	-9.74388
Product	-9.74514
Right	-9.74536
▁transform	-9.74605
▁loop	-9.74672
18	-9.74774
copy	-9.74826
forEach	-9.7491
▁cl	-9.74932
▁push	-9.75007
Open	-9.75016
FileName	-9.75161
de	-9.75224
▁http	-9.7523
▁entries	-9.75266
$	-9.75344
Work	-9.75359
▁names	-9.75469
and	-9.75482
▁8	-9.75497
OF	-9.75585
▁module	-9.75914
for	-9.76016
FOLLOW	-9.7621
START	-9.7624
single	-9.76292
▁u	-9.76355
▁attr	-9.76396
Flag	-9.76406
address	-9.7657
▁extension	-9.76669
Test	-9.76683
▁scale	-9.76792
getCurrent	-9.76899
▁using	-9.76921
Domain	-9.76926
setProperty	-9.77041
Changed	-9.77074
▁access	-9.77154
▁merge	-9.77179
▁post	-9.77256
▁Request	-9.7727
▁arguments	-9.77276
▁Base	-9.77315
Constructor	-9.77324
▁feature	-9.77386
compareTo	-9.77434
Topic	-9.77496
namespace	-9.77528
▁types	-9.77542
▁DEFAULT	-9.77581
Kind	-9.77618
ec	-9.7774
▁distance	-9.78031
▁prop	-9.78102
[]{	-9.78112
▁replace	-9.78116
▁Calendar	-9.78138
Bits	-9.78313
▁counter	-9.78335
>>>	-9.7836
Methods	-9.78561
':	-9.78564
getTime	-9.7861
▁stmt	-9.78682
▁headers	-9.78687
Box	-9.78827
convert	-9.78875
▁mode	-9.78888
Tuple	-9.78913
Capacity	-9.78936
box	-9.79015
-1$	-9.79029
Subscription	-9.79102
Col	-9.79202
▁reset	-9.79284
select	-9.79323
main	-9.79421
ol	-9.79437
os	-9.79555
Atom	-9.79745
PATH	-9.79757
active	-9.79834
▁ByteBuffer	-9.79895
▁de	-9.79943
Run	-9.79945
Score	-9.79985
bean	-9.80087
▁Http	-9.80193
▁HttpServlet	-9.80329
Empty	-9.80375
▁items	-9.80404
store	-9.80491
▁top	-9.80639
Global	-9.80689
accept	-9.80692
▁Preconditions	-9.80752
▁["	-9.80863
▁actual	-9.81031
ro	-9.81041
Join	-9.81086
▁available	-9.81177
▁Add	-9.81338
getAbsolutePath	-9.81343
▁cmd	-9.81481
Formatter	-9.81487
Selection	-9.81487
▁constructor	-9.81584
Tile	-9.82018
am	-9.82076
use	-9.82076
Min	-9.82168
Information	-9.82221
Area	-9.82256
ByteBuffer	-9.82289
▁clear	-9.8237
▁columns	-9.82433
▁No	-9.82696
Ex	-9.82934
▁sure	-9.83143
Relation	-9.83218
▁formatter	-9.83221
Props	-9.83285
Partition	-9.8333
▁random	-9.8334
▁JSONObject	-9.83354
OK	-9.83365
doc	-9.83375
DATE	-9.83412
MIN	-9.8345
▁atom	-9.83458
▁step	-9.83593
▁show	-9.83605
form	-9.83607
UN	-9.83607
collect	-9.83662
Interrupted	-9.83741
[])	-9.8383
TABLE	-9.8386
▁exist	-9.83873
▁raw	-9.83907
▁include	-9.8403
Float	-9.84274
▁conf	-9.84372
est	-9.84461
Authentication	-9.84505
▁off	-9.84578
stop	-9.84597
ff	-9.84629
Multi	-9.84658
▁mapper	-9.84664
Transport	-9.84756
match	-9.84777
Support	-9.84792
▁Iterable	-9.84863
getData	-9.84863
Fragment	-9.84899
Up	-9.84927
Declaration	-9.84987
▁>>	-9.85094
Factor	-9.85161
▁invoke	-9.85188
▁2;	-9.8525
This	-9.85287
▁cms	-9.85292
Socket	-9.85425
tr	-9.85571
Rules	-9.85601
Arrays	-9.85631
iter	-9.85652
USER	-9.85708
ToString	-9.8576
Build	-9.85768
▁append	-9.85848
History	-9.85956
Transform	-9.86008
ate	-9.86104
Site	-9.86131
join	-9.86194
application	-9.86227
listener	-9.86231
▁ns	-9.86528
▁children	-9.86663
Recognition	-9.86731
INT	-9.86767
number	-9.86836
Simple	-9.86855
▁Properties	-9.86935
Principal	-9.86983
replaceAll	-9.87107
eNS	-9.87113
commerce	-9.87137
getX	-9.87139
app	-9.87204
▁Invalid	-9.87302
}/	-9.87411
SQLException	-9.87458
flush	-9.87472
Stop	-9.8752
▁nodes	-9.87568
getDefault	-9.87573
Sync	-9.87654
fs	-9.87708
▁html	-9.87801
▁chain	-9.8781
▁Simple	-9.87825
EPackage	-9.87849
▁payload	-9.87891
▁XML	-9.87905
Duration	-9.87971
Period	-9.88093
▁namespace	-9.88173
LENGTH	-9.88284
sTo	-9.884
▁could	-9.88578
▁since	-9.88625
cs	-9.88688
])	-9.88702
Signature	-9.8872
Co	-9.88794
Widget	-9.88846
Delegate	-9.88912
Plugin	-9.89082
▁retval	-9.89104
report	-9.89143
▁StringUtils	-9.89156
Specification	-9.89208
TOKEN	-9.89227
▁Character	-9.89279
level	-9.89438
----------------	-9.89457
▁U	-9.89534
command	-9.89638
insert	-9.89759
Route	-9.89862
▁allow	-9.89901
unlock	-9.90017
Variables	-9.90133
Found	-9.90161
▁main	-9.90228
annotation	-9.90283
Credentials	-9.90318
▁my	-9.9044
Unknown	-9.90492
Direction	-9.90509
▁cur	-9.90539
▁TimeUnit	-9.90566
li	-9.90716
▁ensure	-9.9072
Transition	-9.90738
pattern	-9.90748
xFF	-9.90769
▁system	-9.9084
send	-9.90879
throw	-9.91083
getEPackage	-9.91116
Deprecated	-9.91141
END	-9.91166
Day	-9.91206
Return	-9.91213
word	-9.91303
document	-9.91404
▁encode	-9.91436
▁done	-9.9144
Section	-9.91465
conf	-9.91508
▁chunk	-9.91514
9	-9.91701
▁CmsResource	-9.91856
▁where	-9.91914
▁script	-9.91976
Res	-9.91976
▁sort	-9.91981
validator	-9.92083
▁DateTime	-9.92083
ctx	-9.92098
▁active	-9.92127
Classifiers	-9.92191
ON	-9.92383
▁Value	-9.92466
Be	-9.92672
De	-9.92695
▁Annotation	-9.92741
Screen	-9.92798
▁NullPointer	-9.92813
reset	-9.92852
▁Repository	-9.92894
CODE	-9.93021
▁device	-9.9309
▁member	-9.93144
▁methods	-9.93191
Rate	-9.93226
Shape	-9.93273
▁1.0	-9.93282
newBuilder	-9.93311
▁op	-9.93341
getAnnotation	-9.9342
search	-9.93425
▁condition	-9.93493
Geometry	-9.9353
ResponseBody	-9.93753
EMPTY	-9.93772
NULL	-9.93776
getResource	-9.93788
-1	-9.93959
▁word	-9.94004
▁Locale	-9.94152
▁variable	-9.94223
var	-9.9423
01	-9.94369
Alias	-9.94391
dest	-9.94406
ac	-9.94454
▁tokens	-9.94491
▁proxy	-9.94552
Buf	-9.94604
reader	-9.94749
▁Content	-9.94812
▁pool	-9.94816
▁compare	-9.94861
Remove	-9.94936
hash	-9.94961
HttpRequest	-9.95037
▁Image	-9.9507
▁groupId	-9.9514
Validator	-9.95141
▁render	-9.95198
SI	-9.95291
Conf	-9.95415
▁env	-9.95418
▁Job	-9.95489
LOGGER	-9.9549
nextPageLink	-9.9549
AL	-9.95525
IO	-9.95651
Binary	-9.95682
Short	-9.95829
▁3	-9.95925
getRequest	-9.95928
▁specified	-9.9606
Title	-9.96066
Trigger	-9.9617
title	-9.96173
schema	-9.96178
Annotations	-9.9625
13	-9.96281
ce	-9.96313
▁partition	-9.96325
tmp	-9.96334
location	-9.964
Iter	-9.96411
Dependency	-9.96497
te	-9.96552
▁part	-9.96585
▁loader	-9.96618
cp	-9.9666
Chunk	-9.96725
Detail	-9.96757
abs	-9.96872
▁Property	-9.9695
("/	-9.96981
▁dst	-9.97034
ies	-9.97059
ns	-9.97142
ant	-9.97151
setValue	-9.97159
▁batch	-9.97178
▁OutputStream	-9.97178
ag	-9.97198
▁BigDecimal	-9.97409
Cursor	-9.97456
Worker	-9.97466
locale	-9.9751
▁best	-9.97582
Prop	-9.97632
▁color	-9.9769
Sort	-9.97788
COLUMN	-9.97799
PARAM	-9.978
LIST	-9.97801
Media	-9.97801
ids	-9.97843
▁descriptor	-9.98
resolve	-9.98019
▁cursor	-9.98025
off	-9.9808
▁Token	-9.98333
▁arr	-9.98372
Registration	-9.98432
22	-9.98554
head	-9.98722
types	-9.98725
▁Document	-9.98728
Archive	-9.98833
scope	-9.99015
▁tile	-9.99056
▁sequence	-9.99118
▁Expression	-9.99185
lastIndexOf	-9.99186
reference	-9.9922
▁exec	-9.99323
▁self	-9.99372
▁fieldName	-9.9939
Driver	-9.99441
ul	-9.9945
▁Connection	-9.99723
getText	-9.99758
rule	-9.99782
Points	-9.99852
Attachment	-9.99906
▁newValue	-9.99918
▁plugin	-9.99922
▁exists	-9.99932
#	-9.99996
EN	-10.0001
▁Update	-10.0002
ive	-10.0002
▁Constants	-10.0006
expression	-10.001
cl	-10.0027
cluster	-10.0032
Progress	-10.0037
▁sum	-10.0045
DataSource	-10.0046
ity	-10.0046
gen	-10.0051
REQUEST	-10.0059
▁JAXBElement	-10.0059
Payload	-10.0062
Runtime	-10.0064
▁decode	-10.0066
getNext	-10.0072
▁Interrupted	-10.009
Static	-10.0097
▁ClassLoader	-10.01
▁Number	-10.0109
▁con	-10.0112
ize	-10.0113
▁auth	-10.0114
HTTP	-10.0121
Millis	-10.0124
Sign	-10.0138
▁Key	-10.0149
Con	-10.0167
▁supported	-10.017
not	-10.0172
▁created	-10.0173
▁classes	-10.0176
EL	-10.0177
▁selected	-10.018
▁title	-10.0181
▁meta	-10.0187
MESSAGE	-10.0192
[][]	-10.0198
INFO	-10.0213
▁fs	-10.0221
post	-10.0221
Language	-10.023
▁?>	-10.0264
▁registry	-10.0274
Children	-10.0274
Authorization	-10.0274
▁charset	-10.0277
Display	-10.0284
Processing	-10.0287
▁Matrix	-10.0289
Instances	-10.0298
um	-10.0302
▁cell	-10.0302
uuid	-10.0306
Any	-10.0311
()];	-10.0312
▁>>>	-10.0329
Arguments	-10.033
ts	-10.0331
decode	-10.0339
▁LinkedList	-10.0347
setAttribute	-10.0375
//	-10.0389
▁var	-10.0395
xff	-10.0396
rec	-10.0411
});	-10.0424
▁Attribute	-10.0425
unit	-10.043
▁full	-10.0434
Plan	-10.0439
forName	-10.0448
▁our	-10.0453
make	-10.0456
Split	-10.0456
NODE	-10.0457
▁Data	-10.0459
IP	-10.0461
member	-10.048
▁storage	-10.0485
▁Config	-10.0491
▁'\	-10.0492
Monitor	-10.0499
timeout	-10.0503
Sample	-10.0504
getParameter	-10.054
▁cached	-10.0549
ve	-10.0562
Pipeline	-10.0569
▁Assert	-10.057
password	-10.0571
▁over	-10.0575
Invocation	-10.0578
▁folder	-10.058
▁"\"	-10.0581
▁tx	-10.0581
ob	-10.0583
▁MAX	-10.0594
▁filename	-10.0598
intValue	-10.0599
Constraint	-10.0604
▁join	-10.0605
[]>	-10.0606
▁move	-10.0616
getWidth	-10.062
Collector	-10.0625
MAP	-10.0626
▁executor	-10.0627
Agent	-10.0632
▁Entity	-10.0633
Criteria	-10.0639
READ	-10.0639
Events	-10.0641
ter	-10.0653
Init	-10.0667
handler	-10.0672
▁some	-10.0676
one	-10.0676
rows	-10.0678
External	-10.0683
▁initial	-10.0686
▁os	-10.0687
td	-10.0687
Iterable	-10.0688
▁added	-10.069
jcasType	-10.0695
IF	-10.0718
Editor	-10.072
Background	-10.0729
em	-10.0735
me	-10.0737
parameter	-10.0741
script	-10.0741
▁given	-10.0744
operation	-10.0747
▁visit	-10.0748
▁ps	-10.0759
14	-10.0761
▁st	-10.0767
NONE	-10.0769
Parts	-10.0776
▁internal	-10.0777
getY	-10.0781
▁interval	-10.0783
▁convertTo	-10.0783
Valid	-10.0785
ELEMENT	-10.0793
fill	-10.081
Single	-10.081
getMethod	-10.0811
▁single	-10.0815
▁iv	-10.083
FilePath	-10.0835
▁consumer	-10.0836
queue	-10.0839
atom	-10.0841
▁possible	-10.0845
▁tags	-10.085
LE	-10.0851
Edit	-10.0858
▁bit	-10.0866
Cert	-10.087
▁rows	-10.0872
Available	-10.0875
▁listeners	-10.0884
ls	-10.0893
Per	-10.0894
Cookie	-10.0895
ompletableFuture	-10.0899
CACHE	-10.0908
▁Java	-10.0909
▁want	-10.091
▁calculate	-10.0911
Span	-10.0919
clone	-10.0923
serviceName	-10.0927
Servlet	-10.0928
Artifact	-10.0929
>>()	-10.0937
Visible	-10.0946
▁Server	-10.0949
▁Pattern	-10.0955
Bit	-10.0958
▁Configuration	-10.0971
Can	-10.0974
],	-10.0974
StringUtil	-10.098
scale	-10.0982
▁Operation	-10.0983
Statistics	-10.1002
Paths	-10.1007
getNode	-10.1012
getInt	-10.1021
RequestContext	-10.1029
sFor	-10.1038
parser	-10.1051
▁its	-10.1061
Describe	-10.1063
setName	-10.1074
compare	-10.1075
Common	-10.108
Grid	-10.1083
▁cls	-10.1091
il	-10.1092
▁Task	-10.1092
▁delta	-10.1093
的	-10.1103
HEADER	-10.1103
▁tr	-10.1118
Weight	-10.112
short	-10.1121
resp	-10.1134
Flags	-10.1151
html	-10.1163
▁control	-10.1165
Zone	-10.117
▁...	-10.1173
Trace	-10.1179
Packet	-10.1182
ret	-10.1187
getUser	-10.1191
HttpServlet	-10.1195
super	-10.1199
▁cal	-10.1201
mode	-10.1202
getContext	-10.1211
DAY	-10.1213
▁form	-10.1215
Ops	-10.1218
Mask	-10.1222
Seq	-10.1222
▁[{}]	-10.1241
--	-10.1244
▁topic	-10.1249
Follow	-10.1261
Deployment	-10.1262
Use	-10.1267
pre	-10.1268
▁User	-10.1272
|	-10.1281
con	-10.1282
▁graph	-10.1297
temp	-10.13
▁verify	-10.1314
▁character	-10.1317
▁window	-10.1318
▁endpoint	-10.132
axis	-10.1335
Master	-10.1343
▁multi	-10.1347
21	-10.1353
Upload	-10.1355
▁happen	-10.1375
▁Table	-10.138
Structure	-10.1381
▁Context	-10.1387
currentThread	-10.1395
<?,	-10.1398
subscriptionId	-10.1406
▁"\	-10.1417
▁Matcher	-10.143
template	-10.1444
ps	-10.1446
Owner	-10.1449
GROUP	-10.1453
sum	-10.1454
segment	-10.1454
pe	-10.1456
Management	-10.1463
Tasks	-10.1463
Stage	-10.1464
▁edge	-10.147
Separator	-10.1484
▁domain	-10.149
Literal	-10.1495
Export	-10.15
▁through	-10.1501
▁Re	-10.1502
ROOT	-10.1504
Assignment	-10.1504
Slot	-10.1509
ting	-10.1525
▁contains	-10.1526
MODE	-10.1535
getLength	-10.1545
▁trigger	-10.1552
Pass	-10.1554
Tab	-10.1556
Schedule	-10.1559
test	-10.1575
ws	-10.1579
toUpperCase	-10.1586
MS	-10.159
▁2);	-10.1592
Diff	-10.1593
DataType	-10.1601
EventListener	-10.1603
isDirectory	-10.1604
Chars	-10.1607
▁changed	-10.1613
Expected	-10.1628
Setting	-10.1632
Native	-10.1641
describe	-10.1645
Comparator	-10.1646
Complete	-10.1646
▁two	-10.1659
begin	-10.1662
total	-10.1663
global	-10.1664
ping	-10.1666
getAll	-10.1666
▁execution	-10.167
EDEFAULT	-10.1682
condition	-10.1691
▁package	-10.1701
cause	-10.1701
RESOURCE	-10.1705
separator	-10.1706
function	-10.1706
▁Runnable	-10.1709
='	-10.171
▁propertyName	-10.1712
▁Internal	-10.1712
cm	-10.1722
complete	-10.1737
push	-10.174
act	-10.174
▁nextPageLink	-10.1744
Renderer	-10.1746
metadata	-10.1754
cur	-10.1755
509	-10.1756
▁duration	-10.1758
style	-10.176
Association	-10.1769
▁fire	-10.177
|=	-10.178
▁checkNotNull	-10.1782
▁parts	-10.1783
Raw	-10.1792
▁notify	-10.1793
▁wait	-10.1794
bundle	-10.1795
Axis	-10.1795
Top	-10.1814
getObject	-10.1816
meta	-10.182
include	-10.1834
env	-10.1836
Backup	-10.1837
▁cp	-10.1841
▁comment	-10.1845
Login	-10.1859
getCause	-10.186
POS	-10.1863
▁dependency	-10.1869
▁Float	-10.187
Interceptor	-10.1872
Expressions	-10.1877
▁10	-10.1877
STATE	-10.1879
OBJECT	-10.1879
destination	-10.188
▁Ovh	-10.1887
merge	-10.1887
Bind	-10.189
Uuid	-10.189
▁1000	-10.19
ers	-10.1903
Escape	-10.1908
getHeight	-10.1909
getStatus	-10.1915
Initial	-10.192
Rows	-10.1925
▁uuid	-10.1928
▁Array	-10.193
▁pass	-10.1935
Transformer	-10.1938
raw	-10.1939
range	-10.1945
apache	-10.1964
et	-10.1966
▁socket	-10.1968
Objects	-10.1972
ARN	-10.1973
Intent	-10.1979
Full	-10.1987
▁def	-10.1991
▁support	-10.1997
▁"."	-10.2001
ibm	-10.2008
ight	-10.2011
cas	-10.2013
getNum	-10.2014
▁scan	-10.2016
▁flags	-10.2024
Scan	-10.2026
Safe	-10.203
Created	-10.2032
▁points	-10.2032
Gen	-10.2032
Proto	-10.2043
Put	-10.2061
Year	-10.2075
▁real	-10.2078
parameters	-10.208
▁resolved	-10.2089
COUNT	-10.2092
Ip	-10.2097
("%	-10.2099
▁Util	-10.21
1;	-10.2101
manager	-10.2102
▁bucket	-10.2106
▁environment	-10.2112
Has	-10.2114
Core	-10.2123
▁Component	-10.2128
getContent	-10.2132
Allowed	-10.2133
METHOD	-10.2137
MONTH	-10.2137
SinglePage	-10.2141
▁lookup	-10.2141
children	-10.2147
TEXT	-10.2148
▁bind	-10.2148
Features	-10.2154
compiler	-10.2154
Timer	-10.2158
"),	-10.2164
ENTITY	-10.2164
▁/**	-10.2167
Secret	-10.2171
▁lo	-10.2175
Collectors	-10.2177
▁fetch	-10.2177
EVENT	-10.2181
counter	-10.2182
▁Pair	-10.2183
Back	-10.2184
▁sign	-10.2194
[3]	-10.2197
▁Color	-10.22
ta	-10.2204
UI	-10.2213
▁commit	-10.2215
Exists	-10.2221
comp	-10.2224
Marker	-10.2225
▁role	-10.2226
▁extra	-10.2229
▁transport	-10.2231
Random	-10.2232
visit	-10.2233
Auto	-10.2234
alt	-10.2235
Envelope	-10.2244
Direct	-10.2246
TypeName	-10.2251
SC	-10.2259
▁Describe	-10.2267
Present	-10.2284
};	-10.2293
getSource	-10.23
▁repository	-10.2301
15	-10.2301
keys	-10.2306
▁ioe	-10.231
▁cancel	-10.2312
NaN	-10.2313
▁them	-10.2316
▁tableName	-10.2317
Boundary	-10.2319
Insert	-10.2325
description	-10.2328
▁getAll	-10.2329
▁View	-10.233
▁desc	-10.2347
Home	-10.2357
▁ds	-10.2371
Errors	-10.2374
▁BufferedReader	-10.2376
2;	-10.2384
pt	-10.2384
Hex	-10.239
▁fail	-10.2395
▁Validate	-10.2402
▁comp	-10.241
extension	-10.2422
apiVersion	-10.2425
extract	-10.2425
sh	-10.2449
▁solution	-10.245
ie	-10.2453
▁owner	-10.2456
▁term	-10.2457
("\\	-10.2463
pair	-10.2467
Codec	-10.247
color	-10.247
Utility	-10.2471
▁mask	-10.2476
Merge	-10.2478
▁manager	-10.2483
▁expr	-10.2486
▁zero	-10.2489
▁indent	-10.249
▁tuple	-10.2492
▁calendar	-10.2492
▁year	-10.2498
▁perform	-10.2499
ra	-10.2503
▁featureID	-10.2508
▁retry	-10.251
▁called	-10.2512
Accessor	-10.2513
▁matches	-10.2526
ARRAY	-10.2537
Delta	-10.2537
INDEX	-10.2537
partition	-10.2545
prev	-10.2546
▁lines	-10.255
▁FileInputStream	-10.2564
▁fill	-10.2569
▁escape	-10.257
ri	-10.2574
▁prepare	-10.2577
▁timestamp	-10.2578
▁bits	-10.2578
ES	-10.2585
CP	-10.2594
▁Tuple	-10.2597
mo	-10.2602
domain	-10.2604
wrap	-10.2604
▁protocol	-10.2606
▁accept	-10.2621
BASE	-10.2622
Animation	-10.2628
')	-10.2639
per	-10.2639
Managed	-10.2644
FileOutputStream	-10.266
tokens	-10.2662
(1,	-10.2666
▁display	-10.2666
by	-10.2668
setText	-10.2668
▁removed	-10.2669
attributes	-10.2672
Temp	-10.2674
DEBUG	-10.2674
Reply	-10.2674
/"	-10.2679
Begin	-10.2687
▁matrix	-10.2687
▁addBody	-10.269
▁signature	-10.2692
3,	-10.2695
▁running	-10.2696
▁Session	-10.2699
▁complete	-10.2709
auth	-10.2713
Connector	-10.2719
ME	-10.2719
ok	-10.2724
▁diff	-10.2724
getBundle	-10.2729
Rest	-10.2735
▁see	-10.2739
ifc	-10.2739
Register	-10.2747
▁attempt	-10.2748
Cause	-10.2748
▁doesn	-10.2751
▁needed	-10.2755
▁messages	-10.2756
fields	-10.2756
Commit	-10.2756
▁identifier	-10.2759
▁Screen	-10.2761
Drawable	-10.2763
Dynamic	-10.2763
CONTENT	-10.2766
pr	-10.2773
▁errors	-10.2775
[0]);	-10.2779
(0).	-10.2788
Delay	-10.2812
Loop	-10.2813
LINE	-10.2813
Services	-10.282
▁EClass	-10.2822
▁"'"	-10.2823
0)	-10.2823
mp	-10.2826
▁layer	-10.2827
▁activity	-10.2836
ATTRIBUTE	-10.285
copyOf	-10.2852
Ok	-10.2862
Finder	-10.2872
reparedStatement	-10.2877
Clause	-10.2882
tp	-10.2885
▁settings	-10.2886
readLine	-10.2887
getEntity	-10.2894
Sum	-10.29
Arn	-10.2905
Rect	-10.2909
ess	-10.2912
device	-10.2914
ized	-10.2914
▁SQL	-10.2925
Equals	-10.2927
round	-10.293
save	-10.293
▁Cache	-10.2933
CA	-10.2941
▁custom	-10.295
PI	-10.2952
Depth	-10.2954
Disk	-10.2957
PER	-10.2958
▁Result	-10.2979
Success	-10.2982
AN	-10.2983
Border	-10.2984
==0	-10.299
Closed	-10.2992
▁API	-10.3
▁never	-10.3003
bind	-10.3016
Subject	-10.3035
Move	-10.3049
▁ip	-10.3052
▁updated	-10.3058
ServiceCallback	-10.3064
getTarget	-10.3071
ACTION	-10.3078
Save	-10.3084
▁configure	-10.3088
DELETE	-10.309
▁predicate	-10.3096
Retry	-10.3098
▁avoid	-10.3099
▁profile	-10.3108
newValue	-10.3108
▁ApiException	-10.3117
Dis	-10.312
Rel	-10.3122
Issue	-10.3123
prop	-10.3124
Visitor	-10.313
▁retrieve	-10.3135
▁separator	-10.3137
▁artifact	-10.3138
Total	-10.314
▁5	-10.3143
just	-10.3143
30	-10.3144
Font	-10.3156
co	-10.3159
▁chars	-10.316
NS	-10.3161
▁algorithm	-10.3162
▁classLoader	-10.317
▁ClassNotFound	-10.3178
Ext	-10.3179
system	-10.3179
=\"	-10.3181
<?>)	-10.3183
Supplier	-10.3187
callback	-10.3187
▁Logger	-10.3196
24	-10.3198
▁clean	-10.3199
fileName	-10.3217
▁always	-10.3219
Send	-10.323
enable	-10.323
23	-10.3233
▁"]"	-10.3235
SEPARATOR	-10.3242
▁err	-10.3244
▁Xml	-10.3245
getFirst	-10.3249
000	-10.3266
▁elem	-10.328
▁OpenCms	-10.328
▁jcasType	-10.3283
FINE	-10.3286
module	-10.3287
Sheet	-10.329
sleep	-10.329
WIDTH	-10.329
Primitive	-10.3293
▁JsonObject	-10.3294
USE	-10.3298
▁interface	-10.3305
Parse	-10.3316
▁Notification	-10.332
▁timer	-10.3327
Graphics	-10.3329
▁co	-10.3337
lat	-10.3339
Basic	-10.334
Replace	-10.3341
AS	-10.3344
▁inputStream	-10.3348
Permissions	-10.336
getApplication	-10.337
▁center	-10.3375
Generic	-10.3376
ay	-10.3389
original	-10.339
▁State	-10.3393
▁cs	-10.3394
isValid	-10.3395
thread	-10.3397
▁Client	-10.3399
Seconds	-10.3404
▁Messages	-10.3407
▁space	-10.341
Blank	-10.3413
▁defined	-10.3414
getElement	-10.3414
CE	-10.3415
▁registered	-10.3416
▁alias	-10.3417
▁controller	-10.3425
ParseException	-10.3426
▁delegate	-10.3429
▁converter	-10.3432
▁additional	-10.3434
Click	-10.3435
NoSuch	-10.3435
▁Text	-10.3438
isLoggable	-10.3438
STATUS	-10.3439
▁zone	-10.3441
▁pending	-10.3453
my	-10.346
core	-10.3476
Zero	-10.3487
Dao	-10.3488
idBagConstraints	-10.3488
casFeat	-10.3488
isTraceOn	-10.3489
isPresent	-10.349
FieldName	-10.3493
▁jar	-10.3499
toByteArray	-10.3499
▁export	-10.3506
getRecord	-10.3507
commit	-10.3524
▁auto	-10.3528
Digest	-10.3531
▁curr	-10.3533
▁vertex	-10.3537
Head	-10.354
IC	-10.3541
mi	-10.3551
Scroll	-10.3553
flow	-10.3557
▁vector	-10.356
def	-10.356
▁setup	-10.3562
Extensions	-10.3565
Email	-10.3572
▁opt	-10.3572
ack	-10.3577
fine	-10.3577
Elem	-10.3586
Tick	-10.3588
PATTERN	-10.3588
TRUE	-10.3588
EntityManager	-10.3588
warning	-10.3591
ui	-10.3596
▁present	-10.3607
▁invalid	-10.3609
can	-10.3615
Connect	-10.3615
▁username	-10.3617
▁BigInteger	-10.3623
top	-10.3623
▁Service	-10.3628
▁qPath	-10.3633
Without	-10.3647
▁Future	-10.3661
▁got	-10.3667
AsString	-10.3674
"+	-10.3675
Accept	-10.3676
▁Web	-10.3676
▁sp	-10.3689
▁nothing	-10.3689
▁StringBundler	-10.3689
▁structure	-10.3693
Card	-10.3693
▁recover	-10.3697
▁route	-10.3698
random	-10.3699
▁allowed	-10.3702
web	-10.3708
31	-10.3709
role	-10.3713
Stat	-10.3717
▁'%	-10.3718
ISO	-10.3722
▁region	-10.3726
▁policy	-10.3731
▁determine	-10.3732
▁relation	-10.3736
Lookup	-10.3741
▁archive	-10.3745
ify	-10.3747
pc	-10.375
FORMAT	-10.3751
AT	-10.3753
release	-10.3753
▁Database	-10.3755
Wait	-10.3757
getEnd	-10.3759
▁criteria	-10.3776
▁bounds	-10.3782
ten	-10.3786
3:	-10.3786
▁missing	-10.3786
Infos	-10.3811
ci	-10.3812
(-1	-10.3837
TypeReference	-10.3842
ByteArray	-10.3844
Delivery	-10.3844
mark	-10.3846
▁product	-10.3848
Src	-10.3857
Writable	-10.3858
provider	-10.3859
elements	-10.3862
50	-10.3863
▁getIfc	-10.3884
▁Opcode	-10.389
getS	-10.3892
Admin	-10.3893
SESSION	-10.3895
CHAR	-10.3897
compile	-10.3902
se	-10.3903
stack	-10.3907
▁Error	-10.3914
rt	-10.3919
▁commerce	-10.3925
▁CharSequence	-10.3926
OP	-10.3928
ErrorCode	-10.3928
Active	-10.3939
Commerce	-10.394
▁suffix	-10.3941
SELECT	-10.3946
RS	-10.3947
Dependencies	-10.3947
www	-10.3947
Dispatcher	-10.395
Arr	-10.3951
ads	-10.3956
▁place	-10.3958
cast	-10.3963
emptyList	-10.3964
cursor	-10.3965
Filters	-10.3966
custom	-10.3967
It	-10.397
Polygon	-10.3971
arr	-10.3971
Sorted	-10.3973
▁In	-10.3978
▁exp	-10.3979
▁describe	-10.3985
PublicKey	-10.3987
▁score	-10.399
▁language	-10.3992
▁flow	-10.3997
Analysis	-10.3999
Runner	-10.3999
Virtual	-10.4002
toList	-10.4007
RO	-10.4008
found	-10.4019
show	-10.4022
▁did	-10.4043
ating	-10.4043
concat	-10.4044
@	-10.4046
na	-10.4047
tx	-10.405
MASK	-10.4052
Execute	-10.4052
Env	-10.4056
▁connect	-10.4058
▁global	-10.4058
02	-10.4069
previous	-10.4073
Const	-10.409
processException	-10.4095
Priority	-10.4104
OutOfBounds	-10.4105
Redirect	-10.4106
Shared	-10.4106
▁pair	-10.411
Definitions	-10.4111
▁Objects	-10.4116
▁progress	-10.4121
where	-10.4129
Comp	-10.4132
endpoint	-10.4138
▁ids	-10.4145
ary	-10.4146
Attempt	-10.4147
▁slot	-10.4149
conn	-10.4153
ise	-10.4153
Jar	-10.4157
Completion	-10.4157
eg	-10.4158
WITH	-10.4158
▁without	-10.4159
getClassLoader	-10.4162
Labels	-10.4167
▁3)	-10.4167
Facet	-10.4171
Publish	-10.4172
▁site	-10.4176
▁SI	-10.4182
frame	-10.4183
▁resourceName	-10.4185
checkNotNull	-10.4186
access	-10.4199
▁Utils	-10.42
▁release	-10.4201
TargetException	-10.4202
ut	-10.4206
Print	-10.4207
Compare	-10.421
SERVER	-10.4212
▁validation	-10.4212
▁InternalXbase	-10.4212
▁day	-10.4227
self	-10.4233
▁shift	-10.4235
▁digest	-10.4236
RA	-10.4238
impl	-10.4238
getTask	-10.4238
distance	-10.4239
option	-10.4242
▁groups	-10.4244
▁"]	-10.4244
Persistence	-10.4245
DE	-10.4264
Extractor	-10.4267
consume	-10.427
▁simple	-10.4271
userAgent	-10.4284
doubleValue	-10.4287
collection	-10.4296
work	-10.43
▁Filter	-10.4301
▁Build	-10.4312
cell	-10.4313
Down	-10.4315
square	-10.4319
▁(@	-10.4329
isBlank	-10.4347
PARAMETER	-10.4364
▁\""	-10.4369
database	-10.4373
Patch	-10.4374
RETURN	-10.4374
▁information	-10.4374
UPDATE	-10.4374
groupId	-10.4377
▁reading	-10.4377
▁16	-10.4378
":	-10.4382
Tx	-10.4386
day	-10.4387
▁go	-10.4392
▁too	-10.4397
▁ParseException	-10.4397
Encoder	-10.4399
▁closed	-10.4399
▁nodeList	-10.4402
AND	-10.4403
ho	-10.4404
proxy	-10.4406
()){	-10.4411
▁authentication	-10.4412
▁import	-10.442
Main	-10.4421
25	-10.4428
Threshold	-10.4428
▁Security	-10.4429
▁round	-10.444
▁\	-10.4445
stats	-10.4447
--)	-10.4448
Bus	-10.4452
▁rec	-10.4458
▁button	-10.4459
batch	-10.446
▁requested	-10.4465
OS	-10.4466
Asset	-10.4468
cc	-10.4478
▁web	-10.4481
iferay	-10.4483
WARNING	-10.4484
Observer	-10.4484
fieldName	-10.4487
▁media	-10.4491
▁flag	-10.4493
Members	-10.4494
getLong	-10.4498
Behavior	-10.4502
ee	-10.4504
getComponent	-10.4508
props	-10.4509
fc	-10.4512
▁metric	-10.4513
FieldType	-10.4515
alias	-10.4519
▁Write	-10.452
▁lower	-10.4522
▁7	-10.4522
Amount	-10.4533
getConnection	-10.4533
▁dialog	-10.4538
Center	-10.4542
over	-10.4543
▁head	-10.4549
rate	-10.4553
uc	-10.4557
▁Application	-10.4559
Do	-10.4568
sResult	-10.4569
▁encoded	-10.457
Unique	-10.4574
Ad	-10.4575
edge	-10.4579
▁remaining	-10.4589
Compound	-10.4594
▁8)	-10.4596
cmd	-10.4603
▁^	-10.4607
remote	-10.4611
getProperties	-10.4618
Standard	-10.4619
EEnum	-10.462
19	-10.4622
skip	-10.4635
processor	-10.464
▁subject	-10.4641
ang	-10.4643
SOURCE	-10.4649
Solution	-10.4649
▁would	-10.465
FALSE	-10.465
▁least	-10.4651
PAGE	-10.4653
ByName	-10.4664
TimeZone	-10.4673
sWith	-10.4679
INVALID	-10.4691
17	-10.4699
▁collect	-10.4702
=");	-10.4706
▁parsed	-10.4712
▁another	-10.4713
NumberFormat	-10.4725
ResultSet	-10.4729
▁wrap	-10.4733
metric	-10.4733
▁childNode	-10.4745
mapping	-10.4753
getInputStream	-10.4756
▁serverName	-10.4759
ERR	-10.476
Bar	-10.4762
FOUND	-10.4763
backtracking	-10.4763
LEFT	-10.4763
33	-10.4763
▁processing	-10.4766
bin	-10.4767
getLast	-10.4767
flatMap	-10.477
}"	-10.4775
▁comparator	-10.4776
SSL	-10.4783
graph	-10.4785
▁inner	-10.4791
[0].	-10.4806
transaction	-10.4809
Workspace	-10.4812
▁NOT	-10.4824
Include	-10.4828
Modifier	-10.4834
▁Int	-10.4838
States	-10.484
▁ResultSet	-10.4844
part	-10.4846
opt	-10.4851
Mark	-10.4857
▁getValue	-10.4858
expected	-10.4862
lv	-10.4863
addr	-10.4864
▁enabled	-10.4864
profile	-10.4867
Lines	-10.4868
propertyName	-10.4871
ization	-10.4871
Cached	-10.4875
Branch	-10.4875
Roles	-10.4876
YEAR	-10.4877
▁api	-10.488
▁msgs	-10.4883
▁candidate	-10.489
▁variables	-10.4905
change	-10.4908
▁LA	-10.4911
▁flush	-10.4911
factory	-10.4913
▁definition	-10.4914
▁trans	-10.4914
step	-10.4926
▁enable	-10.4928
UP	-10.4932
Suffix	-10.4934
APPLICATION	-10.4934
Bootstrap	-10.4934
Indicator	-10.4934
▁proc	-10.4936
▁yet	-10.4938
dm	-10.494
▁mark	-10.4941
Fixed	-10.4941
ical	-10.4941
ab	-10.4944
▁deleted	-10.4949
real	-10.4949
▁Byte	-10.4951
▁Index	-10.4955
nextToken	-10.4958
256	-10.4963
▁Bean	-10.4964
tion	-10.4981
dn	-10.4985
else	-10.4987
security	-10.4987
bo	-10.4991
CmsResource	-10.4991
getIndex	-10.4991
Peer	-10.4993
▁Delete	-10.5
▁orig	-10.5005
ness	-10.5014
▁Transaction	-10.5016
Conversion	-10.5017
Exp	-10.5019
Receiver	-10.5023
<?>[]	-10.5023
▁direction	-10.5026
apiClient	-10.5034
MP	-10.5039
OUT	-10.5042
7:	-10.5046
year	-10.5046
lookup	-10.5046
SERVICE	-10.505
Extended	-10.5053
▁BufferedImage	-10.5062
cancel	-10.5064
la	-10.5068
▁sync	-10.5071
100	-10.5076
>\	-10.5076
▁maximum	-10.508
EC	-10.5084
Zip	-10.5085
ReturnType	-10.5091
▁cookie	-10.5093
escape	-10.5094
INIT	-10.5097
Digits	-10.51
Pixel	-10.5102
Fetch	-10.5103
ds	-10.5105
Actions	-10.511
Unexpected	-10.5111
Words	-10.512
TS	-10.5121
▁columnName	-10.5132
lib	-10.5135
▁ca	-10.5138
▁origin	-10.5139
Credential	-10.5142
▁UnsupportedOp	-10.5151
▁Read	-10.5152
▁Predicate	-10.5157
CmsObject	-10.5164
Debug	-10.5166
erationException	-10.5167
▁Void	-10.5168
KeyValue	-10.5172
▁ImmutableList	-10.5174
▁shutdown	-10.5175
Validate	-10.518
▁memory	-10.5181
Decl	-10.5182
2:	-10.5187
let	-10.5198
▁JSONArray	-10.52
▁editor	-10.5202
▁binary	-10.5206
Clazz	-10.5214
▁--	-10.5217
▁override	-10.5218
▁":"	-10.5222
initialize	-10.5223
▁amount	-10.5223
Instant	-10.5225
Specific	-10.5225
Diagnostic	-10.5227
dialog	-10.5228
IllegalA	-10.5232
pow	-10.5237
▁credentials	-10.5239
▁keep	-10.5246
getStart	-10.5248
names	-10.525
▁UUID	-10.525
▁resolver	-10.525
less	-10.5258
Appender	-10.526
Selected	-10.5265
SHA	-10.527
getLocal	-10.5272
try	-10.5275
ax	-10.5279
Runnable	-10.5286
▁objects	-10.529
Based	-10.5291
Components	-10.5294
Pipe	-10.5294
getVersion	-10.5294
nextElement	-10.5295
▁Basic	-10.5298
Mem	-10.53
putAll	-10.53
selected	-10.5309
fe	-10.5311
grid	-10.5313
▁unique	-10.5321
sib	-10.5326
ct	-10.5328
tl	-10.5329
MD	-10.5342
▁success	-10.5345
▁gbc	-10.5346
Logging	-10.5348
ttpURLConnection	-10.5356
▁deployment	-10.5358
getService	-10.5358
▁layout	-10.5359
▁6	-10.5365
4:	-10.5367
second	-10.5367
▁serialize	-10.5375
Cancel	-10.5384
AR	-10.5386
ADD	-10.5397
▁events	-10.5399
▁Charset	-10.54
▁month	-10.5405
▁sorted	-10.5406
cap	-10.5411
Decoder	-10.5413
protocol	-10.5413
Matches	-10.5415
getMin	-10.5418
red	-10.5419
rv	-10.5425
▁take	-10.5429
ION	-10.543
getBase	-10.543
▁DevFailed	-10.5432
▁Command	-10.5434
now	-10.5434
ance	-10.5437
▁Event	-10.5441
▁optional	-10.5444
getHost	-10.5447
▁between	-10.5453
go	-10.5455
ssl	-10.5456
draw	-10.5459
▁you	-10.5459
Render	-10.546
▁4)	-10.5463
render	-10.5469
▁getPersistence	-10.547
BigDecimal	-10.5475
Marshaller	-10.5478
EventType	-10.5479
items	-10.548
GroupName	-10.5483
our	-10.5485
Opt	-10.5489
SE	-10.5492
sPer	-10.5493
fsp	-10.5494
Filename	-10.5496
oc	-10.5499
ally	-10.5506
TableName	-10.5508
ence	-10.5516
Remaining	-10.552
words	-10.5526
space	-10.5527
Distribution	-10.5528
NUMBER	-10.5528
Variant	-10.5528
▁still	-10.5528
FINDER	-10.5528
Scheme	-10.553
remaining	-10.5538
readInt	-10.5539
SUB	-10.5548
ther	-10.5558
BY	-10.5559
▁ssl	-10.5559
CC	-10.5563
[0],	-10.5564
ne	-10.557
pi	-10.5571
ById	-10.5575
▁se	-10.5577
getState	-10.5578
▁findBy	-10.5581
lt	-10.559
site	-10.56
ca	-10.5601
methodName	-10.5604
▁free	-10.5613
sBy	-10.5618
▁paths	-10.5619
▁like	-10.5619
GUI	-10.5619
▁LinkedHashMap	-10.5622
Jsp	-10.5622
Preference	-10.5628
▁shape	-10.5631
▁edit	-10.5631
Transfer	-10.5634
Addresses	-10.5642
Entities	-10.5651
hasMoreElements	-10.5652
Exit	-10.5656
▁radius	-10.5657
Reason	-10.5663
chunk	-10.5665
Generated	-10.5665
Running	-10.5678
▁they	-10.568
getTable	-10.569
Person	-10.5702
▁stats	-10.5704
schedule	-10.5706
tableName	-10.5707
HttpClient	-10.571
drools	-10.5713
DISPLAY	-10.5713
▁during	-10.5713
PROP	-10.5714
▁icon	-10.5717
▁binding	-10.5721
▁panel	-10.5725
getConfig	-10.5728
payload	-10.573
interval	-10.5732
▁substitution	-10.5743
▁processor	-10.5745
sign	-10.5748
ncodingException	-10.5751
sync	-10.5754
getDescription	-10.5758
Throw	-10.576
Ch	-10.5765
▁know	-10.5767
CS	-10.5768
▁menu	-10.577
age	-10.5773
Origin	-10.5773
-8"	-10.5774
MediaType	-10.5775
▁different	-10.5776
▁high	-10.5776
▁cf	-10.5777
pool	-10.5777
▁contain	-10.5781
setAccessible	-10.5783
getLogger	-10.5784
ATION	-10.5784
Days	-10.5788
Rpc	-10.5795
center	-10.5795
▁24	-10.5795
▁"");	-10.5796
getFile	-10.5803
getPort	-10.5804
▁variant	-10.5807
▁dbc	-10.5808
▁until	-10.5809
▁transition	-10.5812
feature	-10.5812
JC	-10.5813
getColumn	-10.5822
▁equal	-10.5823
JS	-10.5826
Matching	-10.5827
CREATE	-10.5832
▁engine	-10.5833
▁features	-10.5835
▁relative	-10.5836
FILTER	-10.5838
Manifest	-10.5838
Blob	-10.5839
orElse	-10.584
filename	-10.5844
Old	-10.5846
addChild	-10.5849
Getter	-10.5851
▁Do	-10.5855
▁Model	-10.5858
BigInteger	-10.586
weight	-10.5862
Modified	-10.5867
getSession	-10.5867
▁Statement	-10.5882
▁PrintWriter	-10.5884
▁driver	-10.5886
Append	-10.5891
getAttributes	-10.5892
jar	-10.5893
br	-10.5896
ck	-10.5902
OFFSET	-10.5902
▁intent	-10.5911
Other	-10.5913
▁weight	-10.5914
bit	-10.5916
getLocalized	-10.5918
product	-10.5919
▁down	-10.592
▁":	-10.5921
Example	-10.5923
getRoot	-10.5923
encoding	-10.5924
poll	-10.5925
dst	-10.5927
▁correct	-10.5938
js	-10.5943
writeLock	-10.5947
&	-10.5951
Trans	-10.5951
Completed	-10.5952
lp	-10.5957
▁Invocation	-10.5961
▁upper	-10.5965
FormalParameter	-10.5965
sqrt	-10.5965
Pending	-10.5974
▁forward	-10.5987
▁CLASS	-10.5989
▁exc	-10.5992
▁started	-10.5993
cert	-10.5996
Segments	-10.5997
▁delay	-10.5999
desc	-10.6
▁sample	-10.6002
▁eDataType	-10.6003
▁js	-10.6007
+1]	-10.6015
▁being	-10.6021
Show	-10.6026
▁dep	-10.6028
Used	-10.6029
Alert	-10.603
▁'0'	-10.603
CONTEXT	-10.603
▁Project	-10.603
▁failure	-10.6036
MethodName	-10.6037
_1,	-10.6041
▁screen	-10.6041
DIR	-10.6042
BE	-10.6046
ResourceBundle	-10.605
Evaluation	-10.6051
entries	-10.6057
LT	-10.606
CharSequence	-10.6061
Equal	-10.6064
Cost	-10.607
regex	-10.607
▁ignored	-10.6071
Currency	-10.6081
ServiceException	-10.6086
Revision	-10.6088
▁Buffered	-10.6092
Producer	-10.6094
getChildren	-10.6094
▁security	-10.6099
ATTR	-10.61
username	-10.6102
dl	-10.6113
▁For	-10.6113
▁schedule	-10.612
tags	-10.6122
digest	-10.6123
pop	-10.6123
getSystem	-10.6124
Padding	-10.6125
▁Coordinate	-10.6126
Ring	-10.6127
▁Not	-10.6136
▁generator	-10.6136
CPDefinition	-10.6138
▁changes	-10.6138
▁evaluate	-10.6139
back	-10.6142
TypeEnum	-10.6146
Pointer	-10.6151
headers	-10.6152
Charset	-10.6152
RG	-10.6156
▁Short	-10.6162
▁cert	-10.6172
_0=	-10.6175
▁period	-10.6176
▁Remove	-10.6177
▁seconds	-10.6177
▁multiple	-10.6184
LONG	-10.6189
▁replacement	-10.619
Bindings	-10.619
Contents	-10.6197
Candidate	-10.6198
▁Geometry	-10.6205
isNot	-10.6205
Ready	-10.6212
ClassNotFound	-10.6213
Encoded	-10.6214
ver	-10.6218
Help	-10.6218
Measure	-10.6221
▁zip	-10.6223
CHECK	-10.6224
Mail	-10.6224
▁also	-10.6224
Modify	-10.6225
Dump	-10.6231
▁provided	-10.6232
SO	-10.6237
▁Un	-10.6242
ccessException	-10.6245
points	-10.6247
▁look	-10.6247
ColumnName	-10.6248
▁Variable	-10.6248
▁way	-10.6249
▁regex	-10.6254
▁wrapper	-10.6258
activity	-10.6258
chain	-10.6258
▁")"	-10.6262
mm	-10.6271
Versions	-10.6277
ParameterTypes	-10.6283
ContentType	-10.6288
Scanner	-10.629
Slice	-10.629
inputStream	-10.6292
AttributeValue	-10.6296
▁pt	-10.6296
sym	-10.6297
Deleted	-10.6303
Off	-10.6308
Relationship	-10.631
score	-10.6315
Configurations	-10.6316
allow	-10.6316
▁Common	-10.6324
▁initialValue	-10.633
Month	-10.633
javax	-10.6331
GroupId	-10.6331
FileSystem	-10.6335
▁Channel	-10.6337
▁annotations	-10.6338
▁rest	-10.634
Shard	-10.6355
RIGHT	-10.6356
Problem	-10.6356
Modification	-10.6356
FAILED	-10.6357
CR	-10.636
Supported	-10.636
available	-10.6368
▁Process	-10.637
responses	-10.6373
▁HTTP	-10.6374
▁rel	-10.6382
removeAll	-10.6383
Public	-10.6384
que	-10.6386
▁updateresources	-10.6388
ated	-10.6392
listeners	-10.6395
▁INDArray	-10.6402
Dataset	-10.6405
▁#	-10.6406
▁javax	-10.6414
▁100	-10.6415
Forward	-10.6416
▁NULL	-10.6418
compute	-10.6419
iz	-10.6429
▁adapter	-10.6431
Checksum	-10.6432
St	-10.6436
ep	-10.6438
▁stat	-10.6443
Regex	-10.6444
au	-10.6445
Audit	-10.6451
window	-10.6462
Geo	-10.6467
getOwner	-10.6471
writeInt	-10.6483
classes	-10.6484
getServer	-10.6488
Break	-10.6489
Catalog	-10.649
Refresh	-10.649
Mgr	-10.649
Qualifier	-10.6491
Cmd	-10.6498
RES	-10.6499
▁servlet	-10.6503
connect	-10.651
▁declared	-10.6513
▁external	-10.6526
settings	-10.6533
free	-10.6533
Download	-10.6545
▁ruleJvm	-10.6546
Mappings	-10.6549
Pane	-10.6554
Operations	-10.6555
Angle	-10.6558
Complex	-10.6558
netSocketAddress	-10.6558
Free	-10.6559
▁Rectangle	-10.656
An	-10.6571
pay	-10.6571
nextInt	-10.6573
▁reason	-10.6573
▁rules	-10.6576
MBean	-10.6584
lastModified	-10.6587
Existing	-10.6588
General	-10.659
▁sc	-10.6591
▁monitor	-10.6593
ignore	-10.6602
cookie	-10.6603
▁Schema	-10.6606
folder	-10.6608
▁rw	-10.6611
Hint	-10.6616
▁seq	-10.6617
Instruction	-10.6626
STYLE	-10.6626
Since	-10.6626
▁implementation	-10.6627
▁obtain	-10.6629
acceptLanguage	-10.6629
Over	-10.6631
WRITE	-10.6632
▁acc	-10.6633
▁Certificate	-10.6644
▁exclude	-10.6653
▁account	-10.6654
)){	-10.6656
wait	-10.6663
TER	-10.6664
▁require	-10.6669
(0));	-10.667
▁dis	-10.6671
--------------	-10.6675
▁)?	-10.668
Js	-10.6681
Handlers	-10.6682
Constraints	-10.6687
FS	-10.6691
DOCUMENT	-10.6694
SHORT	-10.6694
DO	-10.6695
numCols	-10.67
▁fix	-10.67
po	-10.6703
Resolved	-10.6704
ByteString	-10.6704
▁runtime	-10.6704
▁notification	-10.6707
▁It	-10.6707
▁Tree	-10.6711
WS	-10.6712
▁accountName	-10.6713
▁metrics	-10.6716
26	-10.6716
zip	-10.672
▁Gr	-10.6721
▁fragment	-10.6726
▁finish	-10.6727
setDefault	-10.6735
▁pc	-10.6742
▁quote	-10.6744
exec	-10.6748
▁Try	-10.6749
ling	-10.6751
▁getLog	-10.6755
▁numberOf	-10.6761
▁(0	-10.6761
Where	-10.6763
▁updateresource	-10.6763
isNullOrEmpty	-10.6763
relation	-10.6763
awt	-10.6763
▁network	-10.6764
Workflow	-10.6764
▁Validation	-10.6769
vert	-10.6774
▁redirect	-10.6775
▁priority	-10.6777
▁worker	-10.6782
Tables	-10.679
▁merged	-10.6792
ring	-10.6794
Codes	-10.6797
Linked	-10.6797
▁branch	-10.68
▁Action	-10.6802
0.	-10.6805
trans	-10.6811
peek	-10.6814
Immutable	-10.6818
lease	-10.6819
▁both	-10.682
▁16)	-10.683
ST	-10.683
Struct	-10.6832
Pure	-10.6833
HTML	-10.6833
▁about	-10.6835
▁login	-10.6835
Css	-10.6841
▁").	-10.6842
QNAME	-10.6843
case	-10.6845
Sp	-10.685
▁deserialize	-10.685
Dest	-10.6851
setId	-10.6852
Inline	-10.6861
▁Parse	-10.6875
ONE	-10.6887
checkArgument	-10.6892
▁operator	-10.6896
layer	-10.6898
interrupt	-10.6902
Focus	-10.6903
▁factor	-10.6903
TIMEOUT	-10.6903
IllegalAccess	-10.6905
PUT	-10.6907
Compiler	-10.6909
term	-10.6909
resolved	-10.6914
▁increment	-10.692
▁dist	-10.6923
▁primary	-10.6926
▁serializer	-10.6935
columns	-10.694
APP	-10.6945
FileNotFound	-10.6952
future	-10.6958
fix	-10.6962
Parsed	-10.6969
Conversation	-10.6973
Push	-10.6973
▁cb	-10.6974
Detector	-10.6974
Using	-10.6976
▁again	-10.6977
▁createOrUpdate	-10.6981
▁box	-10.6985
getP	-10.6992
Sets	-10.6993
MimeType	-10.7003
Bound	-10.7007
▁companyId	-10.7007
▁modify	-10.7007
▁upload	-10.7011
getResources	-10.7011
lu	-10.7015
▁Block	-10.7017
Collections	-10.7029
getBoolean	-10.7033
rc	-10.7033
Enable	-10.7035
▁modified	-10.7035
▁selector	-10.7036
▁Use	-10.7036
mapper	-10.7037
En	-10.7041
TASK	-10.7044
*/	-10.7047
▁debug	-10.7049
Vars	-10.7053
▁ext	-10.7056
▁normalize	-10.7057
▁generated	-10.7064
Difference	-10.7065
▁dump	-10.7076
▁Enumeration	-10.7079
Real	-10.7079
▁permission	-10.7081
LIMIT	-10.7083
sp	-10.7084
▁md	-10.7085
Keyword	-10.7087
▁Mutable	-10.7095
SP	-10.71
trigger	-10.7102
Install	-10.7104
shutdown	-10.7106
duration	-10.7106
▁contents	-10.7107
owner	-10.7109
▁Transformer	-10.7111
mul	-10.7111
▁cc	-10.7115
Persistent	-10.7116
CH	-10.7122
getC	-10.7124
▁force	-10.7125
▁publish	-10.7137
(""))	-10.7138
▁getDefault	-10.7144
display	-10.7146
▁classpath	-10.7148
_0)	-10.7148
setStatus	-10.7151
▁CmsException	-10.7155
Locked	-10.7156
Multiple	-10.7158
=2;	-10.7159
▁Random	-10.716
▁constant	-10.7161
▁category	-10.7166
AM	-10.7177
plugin	-10.718
Lifecycle	-10.7185
STREAM	-10.7187
Violation	-10.7187
▁HtmlTree	-10.7187
▁pipeline	-10.7193
Paint	-10.7195
▁IO	-10.7196
▁either	-10.7198
▁tail	-10.7207
span	-10.7209
▁span	-10.7213
Addr	-10.722
Reset	-10.722
Sec	-10.7222
ue	-10.7228
Warning	-10.7229
route	-10.7231
▁were	-10.7233
ABLE	-10.7243
0000	-10.7245
elem	-10.7247
▁pid	-10.725
Track	-10.7252
cls	-10.7253
comment	-10.7256
GENERIC	-10.726
Shift	-10.726
Contact	-10.726
ENABLED	-10.7262
MILLISECONDS	-10.7262
Ctx	-10.7265
34	-10.7273
▁rc	-10.728
▁paint	-10.7287
getPoint	-10.7292
ExecutorService	-10.7294
Naming	-10.7294
getTag	-10.7297
▁bottom	-10.7298
px	-10.7305
▁negative	-10.7306
▁refresh	-10.7311
Chart	-10.7323
candidate	-10.7328
Numeric	-10.7328
bl	-10.7328
media	-10.7329
runtime	-10.7332
Library	-10.7333
bulk	-10.7333
Repeat	-10.7333
▁FFDCFilter	-10.7335
ElementDecl	-10.734
▁once	-10.7341
Availability	-10.7343
▁selection	-10.7345
▁bond	-10.7349
AC	-10.7351
getResult	-10.7352
ade	-10.7356
▁","	-10.7358
results	-10.736
invalid	-10.736
▁swap	-10.7364
▁NO	-10.7365
▁startTime	-10.7369
CT	-10.737
FailedException	-10.738
45	-10.7387
toHex	-10.7389
▁cipher	-10.7394
Serialization	-10.7395
LOCK	-10.7397
▁Entry	-10.7397
},	-10.7404
ite	-10.7404
Aware	-10.7406
Contract	-10.7406
existing	-10.7408
valid	-10.7409
Received	-10.7411
toCharArray	-10.7413
Note	-10.7419
▁TreeMap	-10.7421
Ms	-10.7422
▁Note	-10.7425
QualifiedName	-10.7426
Callable	-10.743
▁primitive	-10.7436
import	-10.7437
Jobs	-10.7439
getItem	-10.7439
parts	-10.7447
serialize	-10.7454
60	-10.7458
auto	-10.746
getLocale	-10.747
bits	-10.7473
▁populate	-10.7473
▁strategy	-10.7478
driver	-10.748
Choice	-10.748
FEATURE	-10.748
Indices	-10.748
▁instead	-10.748
UNKNOWN	-10.748
Clear	-10.748
opencms	-10.7483
SECONDS	-10.7489
writeObject	-10.7489
Platform	-10.749
ReadOnly	-10.749
FOR	-10.7492
isNotEmpty	-10.7495
lf	-10.7495
Bond	-10.7498
▁oldValue	-10.7503
▁shared	-10.7503
▁Search	-10.7507
hi	-10.751
▁sep	-10.7513
ice	-10.7515
▁Tag	-10.7516
▁sym	-10.7516
▁certificate	-10.7531
login	-10.7536
getClient	-10.7538
Tr	-10.7539
pp	-10.7544
▁mod	-10.7547
▁labels	-10.7549
Creation	-10.7554
▁iteration	-10.7555
UNIT	-10.7555
bb	-10.7556
Indexes	-10.7557
Transformation	-10.7557
Links	-10.7557
Annotated	-10.7559
should	-10.7559
▁ok	-10.7564
bar	-10.757
▁received	-10.757
▁keyArea	-10.7571
Started	-10.7572
▁geometry	-10.7581
▁sent	-10.7583
▁what	-10.7589
▁font	-10.7589
▁impl	-10.7595
Side	-10.7599
getID	-10.7607
▁fn	-10.7612
Publisher	-10.7616
)*	-10.7616
Conditions	-10.7621
▁compiler	-10.7621
submit	-10.7624
ified	-10.7628
Dictionary	-10.763
CONFIG	-10.763
LEVEL	-10.763
ability	-10.763
Browser	-10.7632
Jvm	-10.7633
▁Api	-10.764
HashMap	-10.764
▁sw	-10.7643
IAtom	-10.7646
Subscriber	-10.7646
PE	-10.7649
getProject	-10.7651
IM	-10.7661
EntityType	-10.7662
consumer	-10.7663
package	-10.7664
Tracker	-10.7666
dd	-10.7667
spec	-10.7668
ix	-10.7669
▁Make	-10.7674
▁"_"	-10.7678
getResponse	-10.7678
ass	-10.768
Blocks	-10.7684
=1;	-10.7686
variable	-10.7688
Invoke	-10.7691
getOutput	-10.7692
Launch	-10.7698
▁JSONException	-10.7704
BUFFER	-10.7706
Ratio	-10.7706
JOB	-10.7706
allocate	-10.7707
3);	-10.771
▁principal	-10.7718
files	-10.7721
▁setter	-10.7725
▁reduce	-10.7726
▁\"	-10.7727
US	-10.7727
Sip	-10.7727
expr	-10.7728
▁minimum	-10.7731
▁"%	-10.7737
▁constraint	-10.7739
Users	-10.7742
Prev	-10.7745
▁draw	-10.7749
▁initialized	-10.7752
▁mat	-10.7752
low	-10.776
Sent	-10.776
▁per	-10.7761
addContent	-10.7767
Convert	-10.7776
▁ts	-10.7781
cloud	-10.7782
INTERNAL	-10.7782
Sentence	-10.7782
Pid	-10.7783
floor	-10.7785
getGroup	-10.779
language	-10.7793
("-	-10.7795
Req	-10.7798
loader	-10.78
cal	-10.7801
▁sentence	-10.7804
PR	-10.7808
Mod	-10.7812
▁dot	-10.7816
Checker	-10.7823
getClassName	-10.7824
Projection	-10.7827
Super	-10.7828
Windows	-10.783
Dev	-10.7832
ld	-10.7833
▁scroll	-10.7842
Reserved	-10.7846
HOUR	-10.7849
Watch	-10.785
SL	-10.7852
Video	-10.7853
Hook	-10.7853
Coordinate	-10.7857
Program	-10.7858
identifier	-10.7866
SimpleDateFormat	-10.7867
Bitmap	-10.7876
addListener	-10.7876
▁throwable	-10.7882
Sparse	-10.7883
▁embedded	-10.7889
Me	-10.7889
▁attrs	-10.7892
SS	-10.7897
▁addresource	-10.7897
▁Generic	-10.7904
getInput	-10.7917
,"	-10.792
▁Bundle	-10.7922
▁Record	-10.7923
acc	-10.7926
cf	-10.7927
▁methodBuilder	-10.7927
hashCode	-10.7932
Locator	-10.7936
Bottom	-10.7936
ible	-10.7941
DN	-10.7942
▁delimiter	-10.7944
MPS	-10.7947
▁br	-10.795
fw	-10.795
notify	-10.7952
stmt	-10.7954
statement	-10.7956
▁waiting	-10.7956
▁outer	-10.7961
NE	-10.7962
ted	-10.7963
IR	-10.7963
Units	-10.7966
Setup	-10.7967
Redis	-10.797
▁clone	-10.7974
▁caller	-10.7979
JSONObject	-10.7979
Place	-10.7983
▁hex	-10.7986
▁portlet	-10.7989
ptr	-10.7993
More	-10.7999
35	-10.8004
scan	-10.8012
Decimal	-10.8013
ORDER	-10.8014
Cloud	-10.8014
ONLY	-10.8015
DRL	-10.8015
Exchange	-10.8015
▁otherwise	-10.8016
▁Comparator	-10.8026
Checked	-10.8029
dependency	-10.8033
before	-10.8033
▁identity	-10.8038
dist	-10.8038
▁configured	-10.805
getHeader	-10.8054
pa	-10.8055
500	-10.8056
\""	-10.8062
▁filters	-10.8066
setColor	-10.8069
Gateway	-10.8072
NUM	-10.8074
LI	-10.8077
longValue	-10.8082
Creator	-10.8087
QUERY	-10.8094
▁following	-10.8094
COLOR	-10.8094
Phase	-10.8096
▁Cluster	-10.8097
getSize	-10.8097
okhttp	-10.8098
Ignore	-10.8101
40	-10.8102
bucket	-10.8107
▁SAXException	-10.8113
controller	-10.8114
▁'/'	-10.8118
▁dy	-10.8123
▁components	-10.8124
Loading	-10.8126
▁pd	-10.8129
▁completed	-10.8134
▁dx	-10.8135
Providers	-10.8136
▁canvas	-10.8138
▁alpha	-10.8149
ru	-10.816
full	-10.8161
Pa	-10.8162
setContent	-10.8171
Acl	-10.8171
Done	-10.8172
Fallback	-10.8173
BAD	-10.8173
▁Fast	-10.8175
:2:	-10.8178
▁3;	-10.8179
findBy	-10.8183
addParameter	-10.8183
[1]);	-10.819
▁issue	-10.8191
▁words	-10.8194
faces	-10.8194
Cipher	-10.8196
category	-10.8196
ensure	-10.8197
region	-10.8197
▁symbol	-10.82
led	-10.8201
▁consume	-10.8202
md	-10.8206
DS	-10.8211
Singleton	-10.8211
Dist	-10.8216
face	-10.8218
▁packageName	-10.8225
storage	-10.8227
▁Q	-10.8227
▁Authentication	-10.8237
▁cos	-10.824
seek	-10.8245
flags	-10.8247
('/'	-10.8253
▁instanceValue	-10.8254
getAtom	-10.8256
▁grid	-10.8258
▁dependencies	-10.8262
▁means	-10.8265
Named	-10.8267
shape	-10.8267
Preferences	-10.8269
BYTE	-10.8269
▁transformer	-10.8274
▁outputStream	-10.8277
DataManager	-10.8288
▁Duration	-10.8289
▁addresources	-10.8293
getStyle	-10.8294
messages	-10.8295
any	-10.8296
▁Commerce	-10.8307
{}	-10.8308
▁section	-10.8309
▁contentType	-10.8315
Urls	-10.8318
SUCCESS	-10.8333
Implementation	-10.8334
Migration	-10.8334
Procedure	-10.8334
Topology	-10.8334
▁necessary	-10.8334
Terminal	-10.8334
ACCESS	-10.8334
NORMAL	-10.8334
Meter	-10.8334
▁mean	-10.8339
▁let	-10.834
Dimension	-10.834
nt	-10.8342
Same	-10.8343
TE	-10.8346
play	-10.8356
Skip	-10.8361
mask	-10.8362
font	-10.8363
topic	-10.8364
publish	-10.8364
52	-10.837
be	-10.8371
▁expect	-10.8377
edit	-10.838
▁answer	-10.8382
▁special	-10.8392
++){	-10.8398
curr	-10.8402
voice	-10.8405
▁subscription	-10.8407
▁restore	-10.8411
SCREEN	-10.8415
DOUBLE	-10.8415
CONSTRAINT	-10.8415
Substitution	-10.8415
qualified	-10.8415
▁parsing	-10.8415
▁assume	-10.8416
flat	-10.8421
Tool	-10.8428
TH	-10.8433
03	-10.8433
nl	-10.8435
Multimap	-10.844
BYTES	-10.8443
Tango	-10.8446
dc	-10.8447
TreeNode	-10.8448
JMS	-10.8448
▁buff	-10.8451
Clock	-10.8461
▁Instance	-10.8465
getTableName	-10.8471
lo	-10.8474
chars	-10.8478
Threads	-10.8479
Nanos	-10.8482
▁safe	-10.8484
FF	-10.8494
Operand	-10.8496
ocpDate	-10.8497
Inclusive	-10.8497
Translation	-10.8497
Money	-10.8497
IMAGE	-10.8497
CO	-10.8501
unused	-10.8505
inc	-10.8509
▁Types	-10.851
▁tz	-10.8518
▁'.'	-10.8519
tile	-10.8527
Sid	-10.8528
▁"-	-10.8529
descriptor	-10.8531
▁members	-10.8534
control	-10.8535
▁translate	-10.8542
▁candidates	-10.855
enabled	-10.8553
▁datasource	-10.8554
mt	-10.8562
Finish	-10.8569
Partial	-10.8579
Material	-10.8579
Overlay	-10.8579
Chronology	-10.8579
Handshake	-10.8579
boot	-10.8579
seconds	-10.8579
android	-10.858
▁helper	-10.858
('.')	-10.858
▁IAtom	-10.8581
addPostParam	-10.8581
Utilities	-10.8585
Assertion	-10.859
mf	-10.8591
framework	-10.8593
CU	-10.8597
Pro	-10.8601
Scheduled	-10.8604
▁TypeToken	-10.8604
OPEN	-10.8607
race	-10.8607
Numbers	-10.8609
getModifiers	-10.8613
button	-10.8616
directory	-10.8617
Surface	-10.8618
▁operations	-10.8618
only	-10.8634
ResourceInner	-10.8635
Executable	-10.8651
network	-10.8661
CLIENT	-10.8663
Flush	-10.8663
Shell	-10.8663
FULL	-10.8663
Retrieve	-10.8663
Defined	-10.8665
newArrayList	-10.8668
tz	-10.867
▁InternalX	-10.8671
▁getResource	-10.8673
ml	-10.8676
uid	-10.8677
▁scheme	-10.8678
▁capacity	-10.8679
Membership	-10.868
▁assignment	-10.8681
▁characters	-10.8688
▁isValid	-10.869
Apply	-10.8692
cd	-10.8696
Restriction	-10.8704
getStatusCode	-10.8706
non	-10.8706
LS	-10.8708
DataSet	-10.8712
sec	-10.8712
actual	-10.8713
required	-10.8716
FromString	-10.8716
Broker	-10.8719
setType	-10.8725
feat	-10.8738
Increment	-10.8744
▁matching	-10.8744
License	-10.8745
DESCRIPTION	-10.8747
Journal	-10.8747
Temporal	-10.8747
Bug	-10.8747
Fault	-10.8748
▁due	-10.875
ities	-10.8755
0;	-10.8758
Added	-10.8759
Second	-10.8759
pass	-10.8765
FormatException	-10.878
variant	-10.8782
▁example	-10.8782
▁HttpResponse	-10.8784
after	-10.879
force	-10.8791
▁permissions	-10.88
▁attributeName	-10.8805
ServletContext	-10.8805
▁gr	-10.8806
od	-10.8812
LOCAL	-10.8813
▁async	-10.882
SECOND	-10.8822
Classifier	-10.8827
("</	-10.8829
▁normal	-10.883
▁disable	-10.8831
/*	-10.8832
getFirstChild	-10.8833
▁stage	-10.8835
▁ApiResponse	-10.8838
[4]	-10.8842
44	-10.8845
▁depth	-10.8846
▁bound	-10.8847
▁Y	-10.885
References	-10.8853
▁entityType	-10.8855
▁tab	-10.8856
▁ac	-10.8858
▁WS	-10.8859
getParameters	-10.8865
filtered	-10.8865
▁Runtime	-10.8866
Unsupported	-10.8869
▁endIndex	-10.8871
▁Template	-10.8873
▁1:	-10.8876
▁getter	-10.8876
Changes	-10.8876
fragment	-10.8877
Written	-10.8879
icon	-10.8882
▁32	-10.8888
▁enum	-10.8889
ii	-10.8891
tab	-10.8893
SA	-10.8907
Deserializer	-10.8909
getConfiguration	-10.8909
eak	-10.891
▁sh	-10.8913
Extract	-10.8914
▁MozuUrl	-10.8917
Quick	-10.8917
SEVERE	-10.8917
ACTIVE	-10.8917
Resolution	-10.8918
dim	-10.8918
()+"	-10.8919
Feat	-10.8921
Ssl	-10.8922
▁Item	-10.8923
8:	-10.8925
move	-10.8926
▁Return	-10.8928
▁standard	-10.8932
initial	-10.8935
mkdirs	-10.894
▁12	-10.8947
49	-10.8951
Final	-10.8955
require	-10.8956
▁packet	-10.8956
printf	-10.8958
getRaw	-10.896
Scheduler	-10.8971
▁Column	-10.8971
eUnset	-10.8973
▁StringWriter	-10.8982
▁Constant	-10.8986
▁processed	-10.8986
▁Container	-10.8988
tf	-10.8988
▁whe	-10.8989
▁getInstance	-10.8993
▁Intent	-10.8997
setEnabled	-10.8997
Organization	-10.9001
]))	-10.9001
Extra	-10.9003
RECORD	-10.9003
getIdentifier	-10.9003
▁th	-10.9005
Mapped	-10.9005
▁SA	-10.9005
▁seed	-10.9006
dispose	-10.9007
▁assign	-10.9007
▁bitmap	-10.9007
FacesContext	-10.9008
jcas	-10.9009
Additional	-10.901
PrivateKey	-10.901
getCanonicalName	-10.9012
ClassInfo	-10.9015
27	-10.9018
(":")	-10.9021
▁StringTokenizer	-10.9029
Portlet	-10.903
▁pw	-10.9032
Face	-10.9043
Composite	-10.9046
▁Comparable	-10.9053
▁60	-10.9053
▁checkArgument	-10.9054
home	-10.9055
▁fetchBy	-10.906
43	-10.9063
Release	-10.9065
isNull	-10.9067
Sources	-10.9067
▁spec	-10.9082
▁needs	-10.9085
▁less	-10.9088
80	-10.9088
quote	-10.9088
HEIGHT	-10.909
Categories	-10.909
▁later	-10.9091
getParam	-10.9093
Discovery	-10.9093
▁setting	-10.9094
Weak	-10.9099
fx	-10.9099
Soy	-10.9102
ens	-10.9107
Registered	-10.9108
Lower	-10.911
writeAttribute	-10.9115
▁getNext	-10.9116
rawtype	-10.9122
ql	-10.9133
ROW	-10.9135
Negative	-10.9149
IAtomContainer	-10.915
formatter	-10.9152
getModel	-10.9153
▁integer	-10.9154
responseFields	-10.9157
▁Multi	-10.9175
▁me	-10.9177
Wrap	-10.9178
Hierarchy	-10.9178
ZERO	-10.9178
Framework	-10.918
getLog	-10.918
ub	-10.918
Family	-10.9196
ObjectName	-10.9199
28	-10.9202
▁cost	-10.9202
JarFile	-10.9204
operationType	-10.9205
Replica	-10.9207
▁exit	-10.9209
▁versionId	-10.9211
LineString	-10.9214
▁home	-10.9214
sNext	-10.9216
bound	-10.9219
29	-10.9222
Find	-10.9223
▁Constructor	-10.9228
▁snapshot	-10.9231
Requested	-10.9233
are	-10.9233
GL	-10.9234
getTitle	-10.9236
65	-10.9236
geometry	-10.9236
Fix	-10.9236
36	-10.9238
▁primaryKey	-10.9242
▁digits	-10.9248
fa	-10.9251
▁destroy	-10.9254
▁EMPTY	-10.9261
▁maybe	-10.9262
▁common	-10.9262
expire	-10.9263
Curve	-10.9266
为	-10.9266
ENCODING	-10.9266
Orientation	-10.9266
week	-10.9267
Encryption	-10.9267
mac	-10.9269
flip	-10.927
MSG	-10.9272
("}"	-10.9273
GC	-10.9274
46	-10.9275
Username	-10.9276
▁addr	-10.9283
▁ServiceResponse	-10.9287
Connected	-10.9296
nz	-10.9311
Reduce	-10.9317
construct	-10.9325
gauge	-10.9327
▁recursive	-10.9328
dom	-10.933
▁dim	-10.9331
EE	-10.9332
▁startIndex	-10.9332
▁'{}'	-10.9335
DOM	-10.934
▁low	-10.934
multi	-10.935
▁hour	-10.9352
book	-10.9355
listFiles	-10.9355
Special	-10.9356
Groovy	-10.9356
Tail	-10.9356
▁above	-10.9356
PUBLIC	-10.9356
Sink	-10.9356
isInfoEnabled	-10.9356
Zoom	-10.9356
Replacement	-10.9357
▁appId	-10.936
SH	-10.9362
Dep	-10.9365
OperationStatus	-10.9366
Ordering	-10.9372
Policies	-10.9383
PARENT	-10.9384
▁ad	-10.9389
▁Logging	-10.9392
▁tasks	-10.9405
("/"))	-10.9406
servlet	-10.941
getNumberOf	-10.941
reverse	-10.9413
▁mc	-10.9417
▁Reference	-10.9421
▁userId	-10.9421
CmsException	-10.9425
▁Source	-10.9425
rammarAccess	-10.9428
Parameterized	-10.9433
redirect	-10.9437
Private	-10.9438
Connections	-10.9444
是	-10.9446
Semantic	-10.9446
MATCH	-10.9446
centroid	-10.9446
Capture	-10.9446
RULE	-10.9446
UTC	-10.9446
protobuf	-10.9446
PRE	-10.9455
Updates	-10.9456
▁download	-10.9457
200	-10.9466
</	-10.9471
MenuItem	-10.9471
GP	-10.9472
▁serialized	-10.9475
Gr	-10.9476
NEW	-10.9483
>>>()	-10.9499
parsed	-10.951
equal	-10.9511
inner	-10.9511
PC	-10.9512
increment	-10.9514
catch	-10.9516
export	-10.9518
▁widget	-10.9522
email	-10.9523
fromJson	-10.9523
Bad	-10.9525
Fail	-10.9526
getQuery	-10.9526
TypeElement	-10.9526
▁Find	-10.9527
▁EObject	-10.9533
Switch	-10.9537
OUTPUT	-10.9537
mutable	-10.9537
INPUT	-10.9538
▁UI	-10.9542
hand	-10.9543
Reflection	-10.9543
▁within	-10.9546
▁visible	-10.9554
ian	-10.9554
^	-10.9559
ServletException	-10.9559
seq	-10.956
Pairs	-10.9562
StringBuilder	-10.9567
MO	-10.9569
getM	-10.9569
▁checksum	-10.957
NA	-10.9572
▁track	-10.9573
▁cr	-10.9577
NumberOf	-10.9584
▁compile	-10.9588
▁Paged	-10.9592
place	-10.9595
ty	-10.9596
▁details	-10.9597
▁Version	-10.9604
▁loc	-10.9605
loadClass	-10.9607
layout	-10.9608
rpc	-10.9613
▁gen	-10.9616
WithHttp	-10.9616
▁Jvm	-10.9621
▁instances	-10.9624
sha	-10.9624
▁history	-10.9624
Plain	-10.9628
FIRST	-10.9628
Known	-10.9628
compareAndSet	-10.9628
▁such	-10.9628
Drop	-10.9628
▁blocks	-10.9629
▁MessageDigest	-10.963
▁IOUtils	-10.9634
Actor	-10.9642
setMax	-10.9643
NotificationImpl	-10.9647
utf	-10.9647
▁border	-10.9659
▁adjust	-10.9662
getSuperclass	-10.9664
getLocation	-10.9672
▁bar	-10.9675
▁connections	-10.9676
▁Sql	-10.9679
▁EOF	-10.9685
▁SDVariable	-10.9686
sample	-10.9697
▁cast	-10.9698
▁cmp	-10.9701
ext	-10.9702
capacity	-10.9703
artifact	-10.9703
priority	-10.9703
Jms	-10.9703
deployment	-10.9704
RM	-10.9705
proc	-10.9713
Epoch	-10.9715
FLOAT	-10.9721
volume	-10.9721
Oracle	-10.9721
UserSegmentRel	-10.9721
nanoTime	-10.9721
Audio	-10.9721
Bulk	-10.9721
PROJECT	-10.9721
▁dynamic	-10.9722
dict	-10.9722
▁pointer	-10.9723
▁getProperty	-10.9726
▁Local	-10.9729
getR	-10.9732
▁userName	-10.9734
▁retVal	-10.9734
▁JS	-10.9735
▁ss	-10.9736
JVM	-10.9738
Records	-10.9739
Best	-10.9741
▁Enum	-10.9745
▁Status	-10.9745
OFF	-10.9747
ITEM	-10.975
▁strings	-10.9752
▁Cell	-10.9756
▁Metric	-10.9757
rel	-10.9764
ToAdd	-10.9771
▁KeyStore	-10.9772
arc	-10.9774
getDeclaredField	-10.9775
Artifacts	-10.9777
charset	-10.9778
VM	-10.9783
public	-10.9785
codePoint	-10.9786
Anno	-10.9788
Arc	-10.9789
Repo	-10.9789
▁20	-10.9791
▁these	-10.9791
▁2.0	-10.9795
getNamespace	-10.9795
repository	-10.98
perform	-10.9801
supported	-10.9801
LayoutParams	-10.9801
accountId	-10.9809
Country	-10.9812
photo	-10.9814
Sibling	-10.9814
不	-10.9814
Mutation	-10.9814
RESPONSE	-10.9814
▁getOrCreate	-10.9815
Feed	-10.9815
▁graphics	-10.9816
logical	-10.9822
Csv	-10.9824
▁isn	-10.9824
▁Execution	-10.9824
▁TreeSet	-10.9825
div	-10.9828
▁master	-10.9828
▁your	-10.9833
tar	-10.9833
▁Row	-10.9833
Navigation	-10.9837
Stmt	-10.9839
MM	-10.984
(0))	-10.9842
encoded	-10.9845
enc	-10.9846
Into	-10.9851
Readable	-10.9852
ast	-10.9858
eGet	-10.986
▁QueryUtil	-10.9862
cached	-10.9865
▁usage	-10.9869
vserver	-10.9878
▁Feature	-10.988
NodeType	-10.9882
▁instantiate	-10.9887
nn	-10.9889
monitor	-10.9891
09	-10.9891
▁Validator	-10.9891
▁arrays	-10.9896
notification	-10.9896
transport	-10.9898
Charsets	-10.9899
Atoms	-10.9901
her	-10.9907
Symbols	-10.9908
Book	-10.9909
FRAME	-10.9909
Histogram	-10.9909
Concept	-10.9909
ordinal	-10.9909
▁plan	-10.9912
CSV	-10.9914
▁Servlet	-10.9917
dat	-10.9918
exp	-10.9919
Finished	-10.9921
▁define	-10.9922
▁te	-10.9924
Watermark	-10.9926
ke	-10.993
war	-10.9941
▁sip	-10.9946
▁Convert	-10.9956
▁bs	-10.9957
▁Activity	-10.996
▁getClass	-10.996
You	-10.996
Reg	-10.9963
5,	-10.997
Digit	-10.9971
Configs	-10.9973
Resolve	-10.998
▁matched	-10.9984
direct	-10.9985
normalize	-10.9988
rain	-10.9989
socket	-10.9989
configure	-10.9989
solution	-10.9992
sequence	-10.9994
matrix	-10.9994
▁bi	-10.9995
forward	-10.9996
diff	-10.9996
ServletRequest	-11
▁FileSystem	-11
simple	-11
▁clientId	-11.0004
▁positive	-11.0004
Inventory	-11.0004
JAVA	-11.0004
Monomer	-11.0004
Classpath	-11.0006
UserInfo	-11.0007
▁finder	-11.0012
▁0.5	-11.0013
BLOCK	-11.0017
izer	-11.002
FileStatus	-11.0026
▁jedis	-11.0029
Partitions	-11.0033
▁agent	-11.0043
Requests	-11.0043
▁invocation	-11.0046
getConstructor	-11.0048
▁currently	-11.0051
▁Label	-11.0052
);}	-11.0059
PropertyName	-11.0059
▁Code	-11.006
ous	-11.0061
install	-11.0063
▁even	-11.0066
Cast	-11.0067
▁attachment	-11.0068
Subnet	-11.0072
>(_	-11.0076
▁dns	-11.008
▁Batch	-11.0082
fail	-11.0082
activate	-11.0083
Week	-11.0085
▁iterable	-11.0086
light	-11.0089
Dirs	-11.009
getReturnType	-11.0094
calculate	-11.0094
getDouble	-11.0096
Replication	-11.0098
▁seen	-11.01
INFINITY	-11.01
INTEGER	-11.01
SCOPE	-11.01
▁MPSString	-11.0102
▁times	-11.0113
▁mid	-11.0116
Targets	-11.0124
▁construct	-11.0127
▁basic	-11.0128
▁entities	-11.0132
▁chart	-11.0133
▁based	-11.0143
parseLong	-11.0145
Indent	-11.0145
calVarReturnType	-11.0145
writeByte	-11.0148
Images	-11.0155
▁De	-11.0165
rl	-11.0174
Illegal	-11.0177
withParam	-11.019
booleanValue	-11.0191
prepare	-11.0192
Mouse	-11.0192
pipeline	-11.0192
▁Proxy	-11.0192
numRows	-11.0195
Edges	-11.0196
REFERENCE	-11.0197
SUFFIX	-11.0197
Tenant	-11.0197
▁ifNoneMatch	-11.0197
▁1024	-11.0198
▁filePath	-11.02
SiteRoot	-11.0201
▁kernel	-11.0204
angle	-11.0205
hour	-11.0205
PhoneNumber	-11.0205
hole	-11.0206
Setter	-11.0207
MalformedURL	-11.0211
▁padding	-11.0215
▁dataSource	-11.0216
getApp	-11.0216
▁returned	-11.022
Hosts	-11.0221
▁backup	-11.023
▁NumberFormat	-11.0231
▁axis	-11.0234
▁lb	-11.0237
ZipFile	-11.024
("",	-11.0244
▁sec	-11.0247
▁$	-11.0253
Ident	-11.0257
we	-11.0258
zone	-11.0261
Force	-11.0263
Ver	-11.0264
readLock	-11.0265
▁2]	-11.0267
man	-11.0267
90	-11.0271
▁Ignore	-11.0272
>"	-11.0273
eNotification	-11.0278
RGB	-11.0278
▁partial	-11.0283
executor	-11.0291
▁Constraint	-11.0292
▁install	-11.0293
SVG	-11.0294
calendar	-11.0295
tuple	-11.0295
CHANNEL	-11.0295
▁LinkedHashSet	-11.0295
pAddParam	-11.0295
Two	-11.0296
Exclude	-11.0296
closeQuietly	-11.0298
▁direct	-11.0302
txt	-11.0306
▁','	-11.0306
▁Time	-11.0307
Tracking	-11.031
dbc	-11.0311
Radius	-11.0313
getDate	-11.0313
▁neighbor	-11.0316
DD	-11.0321
Delimiter	-11.0323
▁jarFile	-11.0327
Classification	-11.0327
▁nb	-11.0327
Fire	-11.0329
32)	-11.0329
▁tolerance	-11.0333
Alignment	-11.0336
isEnabled	-11.034
▁~	-11.0343
isAnnotation	-11.0345
mod	-11.0345
▁atoms	-11.0346
gl	-11.035
▁scanner	-11.0357
UR	-11.0366
▁Writable	-11.0367
gis	-11.0369
▁FFDC	-11.037
▁reverse	-11.0375
sip	-11.0377
fetch	-11.038
ge	-11.0383
RESULT	-11.0385
▁loaded	-11.0385
▁ii	-11.0389
getRemote	-11.0389
SPACE	-11.0391
dev	-11.0391
nodes	-11.0393
Terms	-11.0395
history	-11.0396
elm	-11.0396
month	-11.0397
Indexed	-11.0398
kind	-11.04
vector	-11.04
so	-11.04
1.0	-11.0406
▁Standard	-11.0408
EDataType	-11.041
ident	-11.0412
XPath	-11.0418
▁DTM	-11.0428
▁del	-11.0429
comm	-11.0432
▁peer	-11.0443
contentType	-11.0444
Coordinates	-11.0445
discover	-11.0451
ever	-11.0457
ann	-11.0458
▁TRACE	-11.0459
ApiException	-11.0459
Syntax	-11.0462
TypeInfo	-11.0464
▁fallback	-11.0473
▁Put	-11.0479
Animator	-11.0481
getError	-11.0483
Draw	-11.0484
UCH	-11.0484
59	-11.0484
ServiceName	-11.0487
QueryParam	-11.0489
Decode	-11.0493
Already	-11.0494
SYSTEM	-11.0494
Criterion	-11.0494
Embedded	-11.0494
TEMPLATE	-11.0494
CENTER	-11.0495
eIsSet	-11.0495
Lazy	-11.0499
toJson	-11.0499
zero	-11.05
▁bus	-11.0507
▁cfg	-11.051
par	-11.0514
MB	-11.0515
hasMore	-11.0516
▁asset	-11.0516
workflow	-11.0517
Net	-11.0519
▁0.0)	-11.052
▁area	-11.0523
appId	-11.0526
LAST	-11.0528
Atomic	-11.0528
:9:	-11.0531
isArray	-11.0546
ng	-11.0551
RI	-11.0552
▁person	-11.0555
▁closure	-11.0558
▁ring	-11.056
▁indexes	-11.0563
▁jsonObject	-11.0563
VIEW	-11.0567
loc	-11.057
▁most	-11.0573
Interfaces	-11.0574
formatUrl	-11.0577
▁sin	-11.0582
interface	-11.0589
▁rf	-11.0589
validation	-11.0589
ifier	-11.059
und	-11.0592
▁Writer	-11.0594
QueryResult	-11.0595
FAILURE	-11.0595
▁occurred	-11.0596
Jedis	-11.0597
SCHEMA	-11.0597
mult	-11.0597
tail	-11.0603
engine	-11.0603
evaluate	-11.0604
menu	-11.0604
fire	-11.0608
▁getS	-11.0613
img	-11.0613
down	-11.0615
Jcr	-11.0616
Hour	-11.0616
EOF	-11.0619
upload	-11.0622
columnName	-11.0622
の	-11.0626
bs	-11.0634
pointer	-11.0635
Loaded	-11.0638
▁temporary	-11.0641
▁email	-11.0642
Primary	-11.065
▁Single	-11.0651
▁segments	-11.0652
▁inv	-11.0655
▁indices	-11.0657
AccessToken	-11.0657
▁stored	-11.066
Pages	-11.0664
Fast	-11.0668
IL	-11.067
getCode	-11.0674
▁written	-11.0678
▁hi	-11.0679
▁replica	-11.068
serve	-11.0681
lower	-11.0682
getTotal	-11.0684
Allow	-11.0687
cu	-11.0687
MINUTE	-11.0688
(1.0	-11.0693
▁Db	-11.0695
LOAD	-11.0696
Shutdown	-11.0697
数	-11.0697
Between	-11.0697
LoadBalancer	-11.0697
board	-11.0697
Placeholder	-11.0697
Rank	-11.0697
CONNECTION	-11.0698
ResourceAsStream	-11.0698
FACTORY	-11.0699
▁polygon	-11.07
▁cd	-11.0704
▁inside	-11.0705
additional	-11.0709
suffix	-11.0709
▁visitor	-11.0709
WithAnnotations	-11.071
timestamp	-11.071
Loc	-11.0711
Injection	-11.0714
amount	-11.0715
UnsupportedE	-11.0718
▁canonical	-11.0719
▁bb	-11.0719
Acc	-11.0721
=%	-11.0724
▁DOM	-11.0727
JavaScript	-11.0729
6:	-11.0729
▁Rest	-11.0738
▁exchange	-11.0743
CacheKey	-11.075
none	-11.0752
ou	-11.0755
getDeclared	-11.0773
NodeData	-11.0776
associate	-11.0786
PA	-11.0786
Prepare	-11.0787
▁fld	-11.0789
▁indexOf	-11.0791
Clean	-11.0794
GenericType	-11.0798
High	-11.08
Comparison	-11.08
CONFIGURATION	-11.0801
TARGET	-11.0801
▁MojoExecution	-11.0801
META	-11.0801
Authority	-11.0801
▁angle	-11.0802
Initialized	-11.0803
Notify	-11.0805
isPrimitive	-11.0805
ERT	-11.0806
stub	-11.081
Estimate	-11.0814
math	-11.0815
subject	-11.0815
plus	-11.0816
Packages	-11.0816
missing	-11.0817
NEXT	-11.0817
▁implement	-11.082
digit	-11.082
argument	-11.0821
Dim	-11.0824
ord	-11.0824
▁tok	-11.0826
▁credential	-11.0828
EM	-11.0829
63	-11.0831
Reporter	-11.0834
safe	-11.0838
▁generic	-11.0843
Spi	-11.0843
▁calling	-11.0846
▁us	-11.0846
▁alert	-11.0851
▁interfaces	-11.0852
▁Pdf	-11.0856
PS	-11.0863
▁checked	-11.0863
rb	-11.0865
Duplicate	-11.0868
art	-11.0874
VALUES	-11.0874
getDatabase	-11.0876
TypeVariable	-11.088
ship	-11.0889
typeName	-11.0892
Removed	-11.0897
Sq	-11.09
Scene	-11.0901
Sdk	-11.0903
Patterns	-11.0904
Gradient	-11.0905
BEGIN	-11.0905
Deferred	-11.0905
Enforcer	-11.0905
Hadoop	-11.0905
▁Otherwise	-11.0905
Lambda	-11.0905
Mock	-11.0905
▁creating	-11.0905
Compression	-11.0905
enclosing	-11.0906
Texture	-11.0906
FacesConfig	-11.0909
ach	-11.0912
▁specific	-11.0912
▁itself	-11.0915
▁cleanup	-11.0916
destroy	-11.092
delegate	-11.0923
slot	-11.0923
constructor	-11.0925
=\""	-11.0925
▁localVar	-11.0925
ump	-11.0926
▁jobId	-11.0927
InMillis	-11.0929
admin	-11.093
▁Queue	-11.0932
GEN	-11.0934
groups	-11.0936
cr	-11.0937
▁unknown	-11.0938
▁decoded	-11.094
ChangeListener	-11.0945
▁pad	-11.0947
▁targetClass	-11.0951
▁repo	-11.0952
▁problem	-11.0955
getRef	-11.0956
rd	-11.0958
Ca	-11.096
Corner	-11.097
▁dataset	-11.097
isFile	-11.0971
▁mv	-11.0973
Visibility	-11.0975
getDocument	-11.0976
eat	-11.0976
▁databaseName	-11.0978
BIT	-11.0978
▁threads	-11.098
▁9	-11.0982
▁Timer	-11.0998
Play	-11.1001
▁named	-11.1002
clientResponse	-11.1004
audio	-11.1009
Volume	-11.101
▁addTo	-11.101
Canvas	-11.101
Temporary	-11.101
▁leaving	-11.101
gallery	-11.101
INTERVAL	-11.101
Keep	-11.101
DAO	-11.1012
▁Parameter	-11.1012
▁Js	-11.1012
getBody	-11.1012
ACL	-11.1015
await	-11.1016
arguments	-11.1017
▁getObject	-11.1027
("{}	-11.1027
56	-11.1029
getBean	-11.1033
parameterIndex	-11.1033
SequenceNumber	-11.1035
cv	-11.104
selector	-11.104
▁localName	-11.1061
▁getMethod	-11.1065
▁topology	-11.1082
▁Scope	-11.1083
HttpMethod	-11.1085
ErrorMessage	-11.1092
▁middle	-11.1093
▁partitions	-11.1097
Caller	-11.11
DOT	-11.1101
SARL	-11.1103
▁Binary	-11.1106
ClientException	-11.1107
▁nested	-11.1109
Low	-11.111
▁threshold	-11.1112
Compact	-11.1116
Spatial	-11.1116
Dialect	-11.1116
Payment	-11.1116
Breakpoint	-11.1119
▁big	-11.1119
Inbound	-11.1124
Trie	-11.1125
Pr	-11.1125
dot	-11.1128
▁difference	-11.1129
pl	-11.1129
setData	-11.1132
author	-11.1133
Pdf	-11.1135
Mutable	-11.1141
QR	-11.1142
vertex	-11.1143
Inputs	-11.1145
ged	-11.1149
DefinitionInner	-11.1151
__0	-11.1152
ather	-11.1159
PM	-11.1161
▁Protocol	-11.1166
getLabel	-11.1168
getAddress	-11.1171
NextToken	-11.1178
▁fl	-11.1183
▁drop	-11.1185
Fill	-11.1186
getOffset	-11.1186
▁rev	-11.1187
▁CmsUUID	-11.1199
}",	-11.1203
▁{//	-11.1209
Grant	-11.1215
▁Don	-11.1216
▁druidG	-11.1224
Aggregation	-11.1224
Datum	-11.1224
Horizontal	-11.1224
TITLE	-11.1224
Ranges	-11.1225
▁hql	-11.1226
OptionRel	-11.1227
▁':'	-11.1227
Many	-11.123
▁managed	-11.123
Initializer	-11.1233
61	-11.1235
StartTime	-11.124
▁repeat	-11.1241
▁compressed	-11.1244
Health	-11.1244
OrderBy	-11.1246
▁side	-11.1246
KeyField	-11.125
symbol	-11.1252
▁EJB	-11.1253
delta	-11.1253
▁255	-11.1256
▁pe	-11.1259
CastException	-11.126
ture	-11.1261
54	-11.1262
▁reply	-11.1264
Go	-11.1266
track	-11.1268
▁marker	-11.1269
see	-11.1275
("#	-11.1281
success	-11.1285
identity	-11.1286
PropertyType	-11.1287
Evaluator	-11.1289
▁fixed	-11.1293
▁Font	-11.1293
attributeName	-11.1294
Helpers	-11.1294
(".")	-11.1301
("/")	-11.1308
Dto	-11.1309
pn	-11.131
▁starting	-11.1313
(4);	-11.1317
Queries	-11.1323
getChild	-11.1323
WebElement	-11.133
getTimestamp	-11.1332
▁tp	-11.1332
BOOLEAN	-11.1332
Slash	-11.1333
WEB	-11.1333
LOCATION	-11.1333
Clone	-11.1333
Buckets	-11.1333
▁finderArgs	-11.1334
mail	-11.1334
Aggregator	-11.134
Raster	-11.1343
()])	-11.1345
getUrl	-11.1351
setVisible	-11.1354
▁millis	-11.1355
WithHeaders	-11.1358
ft	-11.1359
▁Illegal	-11.1359
refresh	-11.1366
TODO	-11.1367
constraint	-11.1369
▁expand	-11.1372
ind	-11.1384
▁mappings	-11.1385
▁dimensions	-11.1391
ler	-11.1392
▁wrapped	-11.1392
NT	-11.1392
▁dt	-11.1394
cos	-11.1395
▁LocalDate	-11.1395
▁audit	-11.1399
ANY	-11.1407
cut	-11.1415
▁jvm	-11.1419
▁inject	-11.1419
StackTrace	-11.1422
Identifiers	-11.1422
Streams	-11.1424
▁trying	-11.1426
Slots	-11.1429
▁extensions	-11.1432
▁core	-11.1432
Backend	-11.1432
Cl	-11.1433
features	-11.1435
ARGUMENT	-11.1442
Alpha	-11.1442
Answer	-11.1442
LABEL	-11.1442
▁'-'	-11.1443
▁behavior	-11.1448
▁proto	-11.1449
DEV	-11.1449
);//	-11.145
getSub	-11.1451
JsonObject	-11.1453
Updater	-11.1454
Beans	-11.1459
Tier	-11.1459
STORE	-11.1461
▁Storage	-11.1461
lowerBound	-11.1466
▁coreType	-11.1467
Theme	-11.1473
repo	-11.1476
▁RemoteException	-11.1479
▁disabled	-11.1479
cannot	-11.148
authentication	-11.148
PdfName	-11.1482
"})	-11.1483
VE	-11.149
1:	-11.149
iterable	-11.1492
▁'\\'	-11.1493
▁inputs	-11.1497
▁XMLStream	-11.1499
Weights	-11.15
▁pack	-11.1504
CommandLine	-11.1504
DM	-11.1506
Idle	-11.1507
▁propName	-11.1512
Quote	-11.1512
53	-11.1516
getReference	-11.1523
meter	-11.1527
sorted	-11.153
▁UTF	-11.1536
LF	-11.1538
unmodifiable	-11.1539
Triple	-11.1541
CLOSE	-11.1547
39	-11.1549
▁offsets	-11.1551
Wave	-11.1552
Ajax	-11.1553
COMMA	-11.1554
multiply	-11.1554
TRANSACTION	-11.1554
BetaApi	-11.1554
▁mse	-11.1554
Preview	-11.1555
▁Atlas	-11.1559
eNotify	-11.1559
addAttribute	-11.1563
▁coll	-11.1563
▁platform	-11.1564
rp	-11.157
▁scheduler	-11.1579
Bo	-11.1582
annotationType	-11.1582
finish	-11.1584
getAction	-11.1585
Dns	-11.1589
isInstance	-11.159
Serializable	-11.1593
TRACE	-11.1593
▁Atom	-11.1597
bi	-11.1597
NoSuchMethod	-11.1602
ACC	-11.1605
Router	-11.1606
Stored	-11.1606
▁receive	-11.1613
cmp	-11.1615
CL	-11.1618
Locations	-11.1622
setTime	-11.1624
>>>>()	-11.1626
▁precision	-11.1632
PAREN	-11.1633
dp	-11.1634
▁reg	-11.1635
▁native	-11.1638
42	-11.1639
getRow	-11.1644
▁finished	-11.1646
Vpc	-11.1648
▁NEXT	-11.1651
▁ws	-11.1652
Under	-11.1659
era	-11.166
Recovery	-11.166
Coding	-11.1665
compound	-11.1666
Activation	-11.1666
CONTROL	-11.1666
Ledger	-11.1666
LINK	-11.1666
Reverse	-11.1666
Adjustment	-11.1666
XAResource	-11.1667
▁Counter	-11.1668
▁Ifc	-11.1668
Eval	-11.1669
putIfAbsent	-11.167
▁clusters	-11.1671
CSS	-11.1677
▁handled	-11.1677
})	-11.1682
RequestBuilder	-11.1686
getTypeName	-11.1687
Sender	-11.1688
▁greater	-11.1692
Literals	-11.1692
dep	-11.1694
▁Now	-11.1694
DT	-11.1695
▁cols	-11.1699
▁AND	-11.1703
getN	-11.1708
isEvent	-11.1712
▁BpsimPackage	-11.1713
shared	-11.1715
TP	-11.1722
Attrs	-11.1724
isTrace	-11.1726
▁provide	-11.1732
▁Box	-11.1737
▁Serializable	-11.1739
▁la	-11.174
setString	-11.1744
▁Graph	-11.1745
▁roles	-11.1747
predicate	-11.1753
▁strip	-11.1756
alg	-11.1758
blue	-11.1763
Hours	-11.1768
readObject	-11.177
FLAG	-11.177
▁dispatch	-11.1773
Flat	-11.1773
Thrift	-11.178
TierPriceEntry	-11.178
▁anything	-11.178
OPERATION	-11.178
Leaf	-11.1781
preferred	-11.1782
ARG	-11.1782
▁actually	-11.1787
baseUrl	-11.1793
setParent	-11.1796
Restore	-11.1797
▁persist	-11.18
Mac	-11.1808
▁ms	-11.1808
ServiceInterface	-11.1815
▁gauge	-11.1816
▁currentNode	-11.1818
▁prevent	-11.1819
▁Remote	-11.182
BoundingBox	-11.1823
delay	-11.1826
▁collector	-11.1826
external	-11.1826
unique	-11.1828
▁handlers	-11.1828
eq	-11.183
jdbc	-11.1832
▁launch	-11.1834
Buffers	-11.1837
cat	-11.1845
Ticket	-11.1846
▁Start	-11.1849
openConnection	-11.1856
("\"	-11.1858
singleton	-11.1859
▁App	-11.1859
UserId	-11.1866
LastModified	-11.1867
named	-11.1869
Po	-11.1875
getJob	-11.1879
99	-11.188
STR	-11.1882
preference	-11.1886
▁img	-11.1889
Counts	-11.1892
Popup	-11.1894
Explicit	-11.1894
▁how	-11.1895
Templates	-11.1895
Coord	-11.1895
Exact	-11.1896
phoneNumber	-11.1896
NAMESPACE	-11.1898
ward	-11.1899
▁Callable	-11.1899
MILLIS	-11.1901
Utf	-11.1902
Signal	-11.1903
▁annotated	-11.1904
CREATED	-11.1906
▁fast	-11.1914
rm	-11.1915
ApiKey	-11.1915
AtomContainer	-11.1916
Starting	-11.192
ElementType	-11.1933
Mo	-11.1934
▁exceptions	-11.1937
closed	-11.1942
direction	-11.1943
account	-11.1943
Issuer	-11.1944
jj	-11.1946
failure	-11.1947
▁Module	-11.1947
bond	-11.1951
▁io	-11.1952
readResource	-11.1958
▁Utility	-11.196
gene	-11.1961
▁bootstrap	-11.1964
Tran	-11.1983
▁own	-11.1984
coords	-11.1985
▁Co	-11.1991
Descriptors	-11.1993
Relative	-11.2001
Descr	-11.2003
▁CommandLine	-11.2003
Recursive	-11.2009
Machine	-11.2009
QUOTE	-11.2011
EXPRESSION	-11.2011
▁something	-11.2011
EXTENSION	-11.2011
FOLDER	-11.2011
Reliability	-11.2011
Routing	-11.2011
wd	-11.2011
CommerceDiscount	-11.2011
SIGN	-11.2014
sessionId	-11.2019
▁choice	-11.2021
inf	-11.2021
exc	-11.2022
▁authorization	-11.2022
RESULTS	-11.2022
▁buffers	-11.2023
▁itr	-11.2024
Notation	-11.2031
df	-11.2033
PK	-11.2042
▁rb	-11.2049
▁declaration	-11.2052
▁thrown	-11.2057
▁checking	-11.2058
bottom	-11.2067
FROM	-11.2067
registry	-11.2067
css	-11.207
~	-11.2071
▁extended	-11.2077
EX	-11.2078
!",	-11.208
Insn	-11.2085
ber	-11.2088
▁Script	-11.2094
amp	-11.2094
Was	-11.21
getEvent	-11.2103
Aggregate	-11.2115
▁loading	-11.2116
98	-11.2118
▁rollback	-11.2123
isStatic	-11.2125
rest	-11.2126
Physical	-11.2126
Enumeration	-11.2127
Serial	-11.2127
PORT	-11.2128
▁occur	-11.2128
IGNORE	-11.2128
PACKAGE	-11.2128
SDK	-11.2129
Initialization	-11.2129
▁eval	-11.213
CDK	-11.213
logp	-11.2132
▁writeW	-11.2133
getChannel	-11.2134
mc	-11.2135
setSelected	-11.2136
▁Supplier	-11.2142
▁commands	-11.2145
▁rm	-11.2146
▁known	-11.215
mem	-11.215
NetworkInterface	-11.2156
▁pkg	-11.2159
▁Parameterized	-11.2163
EndPoint	-11.2163
▁15	-11.2165
KeyStore	-11.2173
plain	-11.2175
Bin	-11.2182
mb	-11.2185
scroll	-11.219
running	-11.219
alert	-11.219
ithIndent	-11.2191
76	-11.2191
▁On	-11.2191
Encode	-11.2192
85	-11.2193
Sarl	-11.2194
▁Only	-11.2196
","	-11.2198
Binder	-11.2204
exiting	-11.2211
▁hit	-11.2214
soft	-11.2217
keyword	-11.222
SecurityGroup	-11.2227
></	-11.2229
da	-11.2232
▁St	-11.2233
creat	-11.2236
Sig	-11.2236
Construct	-11.2244
Tracing	-11.2244
ANNOTATION	-11.2247
EXCEPTION	-11.2247
DeclaringClass	-11.2247
Micro	-11.2247
Maybe	-11.2248
▁via	-11.2248
DDRM	-11.2248
BEAN	-11.2248
CommonTree	-11.2248
Injector	-11.2249
="+	-11.2251
Channels	-11.2253
CASE	-11.2255
diag	-11.2256
▁closest	-11.2257
▁tables	-11.2259
▁"\""	-11.226
▁fromIndex	-11.2261
▁subscriber	-11.2262
fp	-11.2263
getSchema	-11.2264
getLanguage	-11.2266
▁sigma	-11.2269
note	-11.2271
EntityMetadata	-11.2274
RequestMethod	-11.2276
▁200	-11.2277
▁emit	-11.2278
Monitoring	-11.2281
▁invalidate	-11.2283
getRuntime	-11.2285
▁bad	-11.2287
▁transfer	-11.2287
VO	-11.2288
DESC	-11.2289
cn	-11.2292
▁See	-11.2292
PackageName	-11.2296
▁Span	-11.2298
hex	-11.2299
▁duplicate	-11.2305
▁discard	-11.2306
▁perm	-11.2306
▁Sequence	-11.2307
PolicyRequest	-11.2307
▁edges	-11.2308
assert	-11.2313
AST	-11.2314
strict	-11.2314
ToFile	-11.2314
▁DMatrixRMaj	-11.2316
DataStore	-11.2319
▁setValue	-11.2321
▁Tango	-11.2321
FL	-11.2335
▁recovery	-11.2338
newLine	-11.2342
Qualified	-11.2344
▁conditions	-11.235
▁numeric	-11.235
fmt	-11.2351
▁First	-11.2359
getDimension	-11.2361
using	-11.2367
hadoop	-11.2368
HOST	-11.2368
Must	-11.2368
Plus	-11.2368
REMOVE	-11.2369
ending	-11.2369
Hub	-11.237
▁digit	-11.237
Unavailable	-11.2372
('\	-11.2374
ceil	-11.2374
▁really	-11.2378
("\""	-11.238
▁Parser	-11.2382
▁Media	-11.2383
setCurrent	-11.2384
Probe	-11.2384
Functions	-11.2389
▁ModelNode	-11.2389
▁many	-11.2391
ChangeEvent	-11.2393
eval	-11.2393
▁getService	-11.2399
dataset	-11.2399
lines	-11.2407
▁tokenizer	-11.241
getSymbol	-11.241
ient	-11.2411
▁NAME	-11.2411
97	-11.2413
2>	-11.2413
player	-11.2415
spi	-11.2418
▁sink	-11.2424
ras	-11.2431
▁closing	-11.2437
shift	-11.2438
environment	-11.2438
example	-11.2439
ML	-11.2444
▁CPDefinition	-11.2451
dump	-11.2453
▁hostname	-11.2453
▁Partition	-11.2459
MXBean	-11.2461
▁rotate	-11.2465
BL	-11.2465
▁NoSuchMethod	-11.2466
▁Lock	-11.2466
ba	-11.2469
(",")	-11.247
_8)	-11.2471
NotEmpty	-11.2473
▁injector	-11.2481
▁submit	-11.2486
pack	-11.2487
▁connector	-11.2488
WORD	-11.2488
▁vm	-11.2489
classLoader	-11.2489
Sketch	-11.249
Synchronization	-11.249
▁EFapsException	-11.249
INITIAL	-11.249
Round	-11.249
Upgrade	-11.249
asString	-11.2491
Exec	-11.2492
ZIP	-11.2494
1=	-11.2494
▁their	-11.2495
filePath	-11.2496
generated	-11.2497
Expired	-11.2497
Exist	-11.2498
Cap	-11.25
▁below	-11.2502
methods	-11.2505
InternalSARL	-11.2506
▁bug	-11.251
▁Condition	-11.2519
executeQuery	-11.252
▁inline	-11.2522
stat	-11.2526
▁IP	-11.2529
Updated	-11.2533
onError	-11.2537
Grammar	-11.254
TextField	-11.2541
▁clientResponse	-11.2542
Formats	-11.2545
▁shard	-11.2549
subscription	-11.255
▁klass	-11.2554
oid	-11.2556
getFormatted	-11.2556
▁pEntity	-11.2559
signature	-11.2564
nodeName	-11.2564
▁clock	-11.2567
▁records	-11.2567
agent	-11.2567
UL	-11.257
▁jj	-11.257
getOptions	-11.2571
▁getCurrent	-11.2571
▁filtered	-11.2575
▁'/')	-11.2576
▁choose	-11.2579
▁xa	-11.258
drawable	-11.2585
MENT	-11.2588
FORM	-11.2588
▁normalized	-11.2592
Modules	-11.2599
nr	-11.2601
▁Jinx	-11.2604
▁nvae	-11.2608
getCache	-11.261
PROCESS	-11.2612
Volt	-11.2612
Ast	-11.2613
WINDOW	-11.2613
False	-11.2613
PRIORITY	-11.2613
VISIBLE	-11.2613
highLowContainer	-11.2613
Alarm	-11.2613
Privilege	-11.2613
alarm	-11.2613
EOL	-11.2613
SCRIPT	-11.2613
▁kind	-11.2614
FINEST	-11.2614
dup	-11.2616
Compat	-11.2616
IV	-11.2619
OT	-11.2619
getSelected	-11.2619
CLOSED	-11.262
▁country	-11.2621
▁pixel	-11.2627
▁minute	-11.2628
propName	-11.2628
▁fos	-11.2628
lifecycle	-11.2629
lazyGet	-11.2629
deserialize	-11.2632
Absolute	-11.2639
▁reportError	-11.2642
moveTo	-11.2643
tive	-11.2645
HttpResponse	-11.2646
inflate	-11.2647
fr	-11.2649
▁contentLength	-11.2652
0.0	-11.2654
semantics	-11.2655
isTrue	-11.266
▁WebSocket	-11.2663
Closure	-11.2664
Tmp	-11.2666
sax	-11.2666
HttpStatus	-11.2667
Su	-11.2667
▁Primitive	-11.267
equ	-11.2673
("&	-11.2674
▁parentNode	-11.2676
87	-11.2681
errors	-11.2684
▁statistics	-11.2689
Then	-11.269
algorithm	-11.2693
reply	-11.2694
loop	-11.2694
static	-11.2695
defined	-11.2695
sin	-11.2697
retry	-11.2697
management	-11.2701
JSType	-11.2715
▁Input	-11.2721
My	-11.2722
▁Trace	-11.2728
doPrivileged	-11.2729
▁enc	-11.273
Dispatch	-11.273
offer	-11.2731
white	-11.2738
Dependent	-11.2738
ALIGN	-11.2738
observable	-11.2738
Possible	-11.2738
▁better	-11.2738
CmsXmlContent	-11.2738
▁Mismatched	-11.2739
InputType	-11.2743
way	-11.2745
Disabled	-11.2746
swing	-11.2747
common	-11.2749
▁interceptor	-11.2749
Insets	-11.275
Tools	-11.2753
MPP	-11.2755
▁references	-11.2755
▁popup	-11.2761
Invoker	-11.2763
Contain	-11.2765
▁resultSet	-11.2767
▁rhs	-11.2773
projectIdOrPath	-11.2778
:"+	-11.2792
ResponseInner	-11.2803
IBond	-11.2805
Reload	-11.2806
▁pm	-11.2806
addStatement	-11.2809
▁ResourceBundle	-11.2812
TYPES	-11.2815
▁Open	-11.2817
readByte	-11.2821
getProtocol	-11.2824
DTM	-11.2825
ErrorException	-11.2828
caption	-11.283
added	-11.283
isClosed	-11.2833
notation	-11.2838
▁incoming	-11.2844
▁errorMessage	-11.2852
RequestBody	-11.2853
▁30	-11.2854
Expand	-11.2856
:5:	-11.2857
IRI	-11.2858
RED	-11.2859
AUTH	-11.2864
Voice	-11.2865
Percent	-11.2865
CURRENT	-11.2865
SINGLE	-11.2865
decorator	-11.2865
population	-11.2865
Sensitive	-11.2865
hidden	-11.2865
▁AssertionError	-11.2865
iFieldSeq	-11.2865
Raid	-11.2866
▁virtualNetwork	-11.2866
Previous	-11.2866
ROLE	-11.2866
Directive	-11.2866
▁successfully	-11.2866
ElementException	-11.2868
▁directly	-11.2868
respond	-11.2868
credentials	-11.2868
▁executeDescribe	-11.2869
▁BufferedWriter	-11.2869
each	-11.2873
Multipart	-11.2873
he	-11.2874
ier	-11.2874
▁So	-11.2876
▁qPos	-11.2878
recycle	-11.2878
converter	-11.2879
▁getP	-11.2879
insets	-11.288
▁executeGet	-11.2881
>0)	-11.2882
\":	-11.2882
SearchResult	-11.2885
123	-11.2887
▁df	-11.2888
PARAMETERS	-11.2888
JPA	-11.2888
entities	-11.289
▁under	-11.2891
▁renderer	-11.2894
▁inter	-11.2895
▁constraints	-11.2895
Commands	-11.2895
▁receiver	-11.2899
dx	-11.2902
putInt	-11.2904
ong	-11.2909
Offsets	-11.2912
OVER	-11.2915
timer	-11.2916
getApi	-11.2918
events	-11.2924
CON	-11.2927
▁httpClient	-11.2928
▁solve	-11.2931
▁'"'	-11.2932
getPartition	-11.2938
▁ordered	-11.2946
BufferSize	-11.2946
reg	-11.2949
▁animation	-11.2953
unknown	-11.2954
verify	-11.2955
backup	-11.2955
gt	-11.2955
Realm	-11.2956
declared	-11.296
AttributeName	-11.2964
readOnly	-11.2966
CF	-11.2968
Mean	-11.2971
pid	-11.2974
TimeoutException	-11.2976
FE	-11.2978
▁Immutable	-11.2979
numberOf	-11.298
255	-11.2985
▁cnt	-11.2985
▁mg	-11.299
WORK	-11.2993
ALGORITHM	-11.2993
Camera	-11.2993
reject	-11.2993
TaxFixedRate	-11.2993
Lightweight	-11.2993
Elasticsearch	-11.2993
▁every	-11.2993
▁UrlFormatter	-11.2993
▁specify	-11.2994
GrayU	-11.2994
▁runnable	-11.2997
persistence	-11.2999
EDIT	-11.3004
▁codec	-11.3004
▁detect	-11.3004
▁newInstance	-11.3005
1.1	-11.3006
vict	-11.3009
▁fall	-11.3013
STOP	-11.3014
prepareStatement	-11.3015
deviceName	-11.3016
▁HTML	-11.3018
Prefixes	-11.3019
getCluster	-11.302
▁accessToken	-11.3029
getExtension	-11.303
▁zipFile	-11.3032
▁'\\	-11.3035
▁checkState	-11.3038
getUri	-11.3039
▁half	-11.304
▁NodeList	-11.3041
▁connected	-11.3057
1[	-11.306
EXP	-11.3063
▁crc	-11.3065
done	-11.3067
CmsResourceType	-11.3068
getRootPath	-11.3068
Parallel	-11.307
der	-11.3075
subList	-11.3077
38	-11.3078
MR	-11.3082
▁Extension	-11.3085
▁Cipher	-11.3086
Unicode	-11.3086
Minutes	-11.3086
▁formatted	-11.3089
advance	-11.309
▁scores	-11.3096
▁combine	-11.3098
06	-11.3101
CPDefinitionId	-11.3103
▁lhs	-11.3104
▁probe	-11.3104
Cols	-11.3106
dy	-11.3107
VAL	-11.3108
-"	-11.311
▁Instantiation	-11.3112
▁disk	-11.3118
▁manifest	-11.3118
Collect	-11.3119
https	-11.3119
need	-11.312
getContainer	-11.3121
Fraction	-11.3123
GREATER	-11.3123
MAPPING	-11.3123
Excel	-11.3123
Proposal	-11.3123
Velocity	-11.3123
Abort	-11.3123
ableAltException	-11.3123
AUTO	-11.3123
55	-11.3123
COMMENT	-11.3123
Alg	-11.3124
▁HttpMethod	-11.3126
▁hold	-11.3127
▁[%	-11.3129
checkState	-11.313
AccessController	-11.3131
PrivilegedAction	-11.3133
Statements	-11.3134
Dimensions	-11.3136
NN	-11.3136
▁holder	-11.3138
predict	-11.3142
sep	-11.3143
▁servletContext	-11.3145
writeEnd	-11.3146
▁registration	-11.3146
RSA	-11.315
▁jsonArray	-11.3154
Live	-11.3154
▁TYPE	-11.3158
ThreadPool	-11.3159
FileUtils	-11.3162
getCount	-11.3164
projectId	-11.3165
SuccessResponse	-11.3166
Dot	-11.3166
▁well	-11.3173
sun	-11.3174
▁pro	-11.3176
▁currency	-11.3183
▁cons	-11.3184
▁scheduled	-11.3191
DBID	-11.3199
ServiceInstance	-11.3199
getShort	-11.32
▁SAX	-11.32
getView	-11.3203
▁numbers	-11.3204
CommercePrice	-11.3209
rewrite	-11.3209
period	-11.3213
EJB	-11.3219
▁InetAddress	-11.3219
reduce	-11.3219
Unsigned	-11.3224
▁Dependency	-11.3229
▁billingAccount	-11.323
▁iterate	-11.323
75	-11.3231
Vec	-11.3236
▁conversion	-11.3237
▁deploy	-11.3243
▁literal	-11.3243
stamp	-11.3245
▁envelope	-11.325
ClassDescriptor	-11.325
JAXB	-11.3254
POSITION	-11.3255
PROPERTIES	-11.3255
histogram	-11.3255
取	-11.3255
ANCHOR	-11.3255
Seen	-11.3255
▁Hashtable	-11.3255
▁"\\	-11.3255
Related	-11.3255
Soft	-11.326
columnIndex	-11.326
▁ImmutableSet	-11.3261
Price	-11.3261
ActionEvent	-11.3262
optional	-11.3263
getMethods	-11.3265
WorkUnit	-11.3269
▁bytesRead	-11.327
▁NoV	-11.327
CheckBox	-11.3273
WebApp	-11.3273
ht	-11.3274
CPInstance	-11.3275
PrimaryKey	-11.3276
pending	-11.3276
-1]	-11.3277
▁VALUE	-11.328
du	-11.3284
▁lib	-11.3285
▁Signature	-11.3286
Faces	-11.3286
services	-11.3288
factor	-11.329
Tax	-11.3291
Sha	-11.3291
▁Socket	-11.3295
▁Wait	-11.3296
▁Collector	-11.3299
▁requires	-11.3304
▁trailing	-11.3305
Outer	-11.3307
Secure	-11.3309
("{	-11.331
mit	-11.3311
▁DataSource	-11.3313
userId	-11.3313
79	-11.3315
Conditional	-11.3325
getStackTrace	-11.3326
▁boundary	-11.3326
▁stringBuilder	-11.333
▁func	-11.3335
▁alluxio	-11.3338
▁jdbc	-11.3338
strCommand	-11.3345
▁getType	-11.3346
▁directive	-11.3347
▁di	-11.3349
▁typeName	-11.335
opcode	-11.3352
addProperty	-11.3354
▁qualifier	-11.3355
▁geom	-11.3358
▁tick	-11.3358
assignment	-11.336
AddOn	-11.3363
▁li	-11.3364
pkg	-11.3364
&&	-11.3366
dt	-11.3369
▁Test	-11.3369
PathParam	-11.3372
95	-11.3373
utils	-11.3379
▁projectId	-11.3379
Poll	-11.3379
▁propertyValue	-11.338
▁small	-11.3381
getPage	-11.3382
CW	-11.3383
mitted	-11.3385
Look	-11.3387
Positive	-11.3388
Exclusive	-11.3388
Solver	-11.3388
DayOfWeek	-11.3388
Isotope	-11.3388
Recommendation	-11.3388
ADDRESS	-11.3388
Bracket	-11.3388
DELIMITER	-11.3388
SEGMENT	-11.3388
Cpu	-11.3389
▁vals	-11.3389
Outbound	-11.3389
setS	-11.339
reflect	-11.3391
GrayS	-11.3392
▁ty	-11.3396
asset	-11.3396
▁xpath	-11.3398
Offer	-11.3401
▁evt	-11.3405
▁workspace	-11.3413
isIn	-11.3413
▁expressions	-11.3414
agger	-11.3414
Canonical	-11.3414
Ordered	-11.3418
exclude	-11.342
DA	-11.3421
CacheSize	-11.3422
▁won	-11.3423
▁signal	-11.3423
▁minor	-11.3424
▁relationship	-11.3426
cx	-11.3427
CODES	-11.3428
prototype	-11.3432
▁getFile	-11.3434
16)	-11.3437
isWhitespace	-11.3445
84	-11.3448
2))	-11.3448
▁saved	-11.3448
▁httpRequest	-11.3449
Abs	-11.3453
▁Files	-11.3453
▁FROM	-11.3458
▁wrong	-11.3464
eal	-11.3468
▁apiVersion	-11.3475
TimeUnit	-11.3476
▁phase	-11.3478
▁library	-11.3481
▁ne	-11.3481
Contains	-11.3485
visible	-11.3487
▁OAuth	-11.3489
AttributeType	-11.3491
("--	-11.3492
▁bd	-11.3492
▁cat	-11.3494
Hidden	-11.3494
rad	-11.3495
▁mimeType	-11.3496
side	-11.3497
Assert	-11.3497
scheme	-11.3498
()[0]	-11.3498
screen	-11.3499
high	-11.3499
▁cpDefinition	-11.3501
▁PrintStream	-11.3503
▁summary	-11.3506
EQUAL	-11.3506
Maximum	-11.3508
UserSegmentEntry	-11.3509
▁Term	-11.3515
JSONArray	-11.3516
Upper	-11.3516
://"	-11.3517
▁unregister	-11.3518
VirtualMachine	-11.3519
▁coordinates	-11.3519
mean	-11.352
terminate	-11.3523
Declared	-11.3523
WAIT	-11.3523
privilege	-11.3523
Representation	-11.3523
Ascii	-11.3523
Photo	-11.3523
Reservation	-11.3524
▁associated	-11.3524
marker	-11.3525
▁anno	-11.3528
Associated	-11.3529
▁cycle	-11.3532
Executors	-11.3533
FLAGS	-11.3535
▁"-"	-11.3539
Ret	-11.3542
Func	-11.3542
▁Converter	-11.3548
modifiers	-11.3548
▁Run	-11.3549
AP	-11.355
▁TimeZone	-11.3556
defaultValue	-11.3563
▁Plugin	-11.3563
Datastore	-11.3563
ttl	-11.3565
▁pred	-11.3566
VER	-11.3569
used	-11.3569
Xid	-11.3569
▁fraction	-11.357
▁orderBy	-11.3573
-8	-11.3578
getVariable	-11.358
border	-11.358
▁mol	-11.3587
URISyntax	-11.3595
▁Artifact	-11.3599
redis	-11.3605
▁instanceId	-11.3607
Dec	-11.3607
▁en	-11.361
▁encoder	-11.361
pad	-11.3611
▁CSS	-11.3618
▁Link	-11.3625
▁groupName	-11.3625
▁hasNext	-11.3625
▁ranges	-11.3627
▁fis	-11.3627
HttpHeaders	-11.3629
JavaType	-11.3635
fn	-11.3636
▁jobName	-11.3637
▁cli	-11.3637
selection	-11.3637
panel	-11.3638
principal	-11.3639
progress	-11.3639
adaptor	-11.3639
depth	-11.364
▁Select	-11.364
-1;	-11.3642
▁problems	-11.3644
ftp	-11.3646
▁sa	-11.365
IgnoreCase	-11.3653
▁large	-11.3656
▁remain	-11.3656
CD	-11.3659
TypeDesc	-11.366
major	-11.366
Cardinality	-11.366
consistent	-11.366
translation	-11.366
▁consider	-11.366
MIME	-11.366
Implicit	-11.366
balance	-11.366
incrementAndGet	-11.3661
Wire	-11.3661
gram	-11.3661
(':')	-11.3662
Divider	-11.3664
▁downstream	-11.3664
▁deriv	-11.3671
Pref	-11.3672
▁waitFor	-11.3672
Author	-11.3675
Now	-11.3676
▁Pool	-11.3679
▁Progress	-11.3681
Samples	-11.3681
dateTime	-11.3681
▁trim	-11.3682
▁Call	-11.3689
currentTime	-11.3692
▁calls	-11.3696
▁zoom	-11.3699
share	-11.37
:"))	-11.3701
Checkpoint	-11.3708
▁currentValue	-11.3711
▁lv	-11.3713
leader	-11.3719
dataSource	-11.3724
ClassDoc	-11.3725
▁entityClass	-11.3725
getMetaData	-11.3728
AWS	-11.3728
("^	-11.3733
▁promise	-11.3734
▁weights	-11.3735
getHeaders	-11.3735
statementBuilder	-11.3739
getRepository	-11.3741
Integration	-11.3748
▁WHERE	-11.3753
▁rect	-11.3755
getToken	-11.3761
inv	-11.3762
▁baos	-11.3765
sheet	-11.3765
▁"&	-11.3767
eventType	-11.3772
getOrder	-11.3773
assign	-11.3774
getResourceType	-11.3776
orig	-11.3778
clean	-11.378
▁dataType	-11.3781
Ldap	-11.3781
secret	-11.3782
break	-11.3783
hasText	-11.3784
readLong	-11.3785
▁indicate	-11.3785
▁sessionId	-11.3785
▁handshake	-11.3786
detail	-11.3788
ClickListener	-11.3789
accessToken	-11.379
intersect	-11.3792
FullName	-11.3794
MOVE	-11.3798
Capabilities	-11.3799
Preparation	-11.3799
suppress	-11.3799
▁enough	-11.3799
▁supplied	-11.3799
BODY	-11.3799
INSERT	-11.3799
▁equivalent	-11.3799
LANGUAGE	-11.3799
terminal	-11.3799
maven	-11.3799
Self	-11.3799
Verification	-11.3799
AFTER	-11.3799
Caption	-11.3799
Moment	-11.38
Err	-11.38
emit	-11.3801
▁sig	-11.3801
Heap	-11.3802
▁reached	-11.3803
▁users	-11.3805
getFeature	-11.3805
▁ratio	-11.3806
▁transformation	-11.3806
ejb	-11.3808
▁parameterTypes	-11.3809
ops	-11.3809
SIErrorException	-11.381
sig	-11.381
urn	-11.3811
51	-11.3811
▁resize	-11.3813
▁sheet	-11.3813
▁Conversion	-11.3813
changed	-11.3814
initialized	-11.3817
▁batchSize	-11.3819
[5]	-11.3819
▁ldap	-11.382
["	-11.382
▁virtual	-11.3822
TypeArguments	-11.3826
▁Scriptable	-11.3837
XExpression	-11.3838
hostname	-11.3838
getDestination	-11.3839
-8"));	-11.3841
Characters	-11.3841
millis	-11.3843
Once	-11.3846
filters	-11.3849
Validity	-11.385
▁Bad	-11.3852
▁longer	-11.3855
▁IAtomContainer	-11.386
Dst	-11.386
▁taskId	-11.3865
▁getParent	-11.3872
▁Managed	-11.3874
sure	-11.3874
▁Null	-11.3877
ification	-11.3877
0:	-11.3879
▁Auto	-11.388
setInt	-11.3885
▁utils	-11.3887
getCommand	-11.3889
ATT	-11.3889
eSet	-11.389
sToRemove	-11.3891
▁completion	-11.3892
mgr	-11.3893
TypeEClass	-11.3896
compose	-11.3897
]]	-11.3903
ListItem	-11.3906
quality	-11.3907
▁fit	-11.3908
resourceName	-11.3913
disable	-11.3914
▁modules	-11.3918
▁adding	-11.3918
▁po	-11.392
getURI	-11.3921
Hit	-11.3924
platform	-11.3926
authorization	-11.3927
delimiter	-11.3927
radius	-11.3927
orderBy	-11.3927
cleanup	-11.3927
exchange	-11.3927
▁warning	-11.3928
structure	-11.3929
archive	-11.3929
▁mem	-11.3931
findFirst	-11.3932
74	-11.3935
▁help	-11.3936
Inject	-11.3936
Than	-11.3936
Question	-11.394
POSITIVE	-11.394
Decorator	-11.394
RUNNING	-11.394
thrift	-11.394
ASCII	-11.394
DEVICE	-11.394
detach	-11.394
Simulation	-11.394
Jwt	-11.394
▁SortedSet	-11.394
Accumulator	-11.394
margin	-11.3941
retain	-11.3941
▁catalog	-11.3949
FX	-11.3951
▁terms	-11.3952
▁wave	-11.3957
▁Generate	-11.3958
addHeader	-11.3959
▁paramTypes	-11.3959
▁ab	-11.3964
▁working	-11.3964
▁streams	-11.3968
▁encrypt	-11.397
training	-11.3978
▁calc	-11.3981
▁around	-11.3982
getModule	-11.3983
Logical	-11.3984
SetException	-11.3986
Interior	-11.3989
SSH	-11.3989
▁Ap	-11.399
▁rpc	-11.3991
CALL	-11.3995
basePath	-11.3995
PersistenceUnit	-11.3999
▁Join	-11.4001
csv	-11.4003
EXT	-11.4006
Quota	-11.4008
BlockSize	-11.4012
▁heap	-11.4013
nonce	-11.4014
▁retValue	-11.4015
MQ	-11.4021
trie	-11.4021
▁hook	-11.4025
mix	-11.4026
Sep	-11.4031
LY	-11.4037
Endpoints	-11.4037
▁logging	-11.404
▁datastore	-11.404
InstanceGroup	-11.4042
RB	-11.4044
▁allocate	-11.4046
RDF	-11.4047
setup	-11.4047
▁rv	-11.405
PT	-11.4053
Inst	-11.4055
▁Copy	-11.4056
▁accumulator	-11.4056
IPv	-11.4059
▁gc	-11.4064
▁Pointer	-11.4064
▁Closeable	-11.4065
Subscribe	-11.4066
▁MediaType	-11.4066
Views	-11.4066
created	-11.4068
Align	-11.4071
▁revision	-11.4072
catalog	-11.4073
CB	-11.4073
kernel	-11.4073
▁DATA	-11.4077
writeLong	-11.4077
LOW	-11.4079
adapter	-11.408
▁coordinate	-11.4081
MARK	-11.4082
METRIC	-11.4082
FETCH	-11.4083
Heartbeat	-11.4083
Power	-11.4083
Bridge	-11.4083
Destroy	-11.4083
Mongo	-11.4083
PRIVATE	-11.4083
horizontal	-11.4083
longitude	-11.4083
Historic	-11.4083
Margin	-11.4083
Vertices	-11.4083
Correct	-11.4083
Outcome	-11.4083
Durable	-11.4083
AndReleaseTask	-11.4083
master	-11.4083
Pull	-11.4083
Adjust	-11.4083
SecurityGroups	-11.4083
NotSupported	-11.4087
Scalar	-11.409
UpperBound	-11.4091
throwable	-11.4092
/%	-11.4093
▁jsonGenerator	-11.4093
Soap	-11.4093
▁ImmutableMap	-11.4095
ruleX	-11.4096
▁fieldType	-11.4099
tim	-11.4099
▁reload	-11.41
elementAt	-11.4106
AutoCommit	-11.4113
vars	-11.4116
JCR	-11.4116
▁GitLabApi	-11.4119
▁tran	-11.412
▁getField	-11.4121
▁getUser	-11.4124
Precision	-11.4124
DBIDs	-11.4124
INF	-11.4124
Participant	-11.4128
commerceDiscount	-11.4129
InstanceId	-11.4131
Needed	-11.4139
Reading	-11.414
JAR	-11.4142
+1)	-11.4146
ServiceReference	-11.4151
▁Network	-11.4158
▁pause	-11.416
lr	-11.4162
▁packages	-11.4163
▁video	-11.4166
08	-11.4169
▁guess	-11.4169
▁cookies	-11.417
ear	-11.417
bp	-11.4171
HtmlTag	-11.4173
QName	-11.4174
▁Grid	-11.4177
▁corner	-11.4181
▁fully	-11.4182
▁buckets	-11.4183
Assign	-11.4184
DataPoint	-11.4185
AndGet	-11.4186
nu	-11.4189
▁Flow	-11.4198
DataOutputStream	-11.42
marshal	-11.4201
LEN	-11.4203
▁sender	-11.4203
▁Compute	-11.4203
Attachments	-11.4208
Phrase	-11.4208
toURI	-11.421
Trust	-11.4213
help	-11.4214
getDisplayName	-11.4214
Compile	-11.4215
80)	-11.4217
Ping	-11.4217
Big	-11.4219
Series	-11.422
▁metaData	-11.4221
▁sys	-11.4221
Jdbc	-11.4221
execution	-11.4223
getScheme	-11.4223
Rectangle	-11.4224
fetchBy	-11.4225
dynamic	-11.4226
Messaging	-11.4227
getLeft	-11.4227
mission	-11.4227
Front	-11.4228
Rotation	-11.4228
▁handling	-11.4228
BINARY	-11.4228
Console	-11.4228
Spliterator	-11.4228
rvOrm	-11.4228
subtract	-11.4228
UOW	-11.4228
Compatible	-11.4228
Calculator	-11.4228
▁interrupted	-11.4228
WsByteBuffer	-11.4228
purge	-11.4229
Markup	-11.4229
Thing	-11.4229
atoms	-11.4233
plan	-11.4234
PropertyValue	-11.4236
rth	-11.4238
decrypt	-11.4239
gml	-11.4239
Ob	-11.4241
Editable	-11.4242
stage	-11.4244
InProgress	-11.4246
cols	-11.4246
Adding	-11.4247
▁NOTE	-11.425
Statistic	-11.4251
initialValue	-11.4252
▁symbols	-11.4253
ipv	-11.4253
Vfs	-11.4254
getNew	-11.426
PID	-11.4266
_1);	-11.4267
▁serial	-11.4267
subscribe	-11.4272
▁QName	-11.4272
character	-11.4274
▁cx	-11.4276
▁blockSize	-11.4279
compatible	-11.4283
pin	-11.4283
Pack	-11.4284
▁interpreter	-11.4285
StartIndex	-11.4285
▁accessor	-11.4287
("/"	-11.4291
TION	-11.4295
enum	-11.4304
Predicates	-11.4309
getNodeName	-11.431
▁converted	-11.4314
ima	-11.4316
writeStart	-11.4324
Keywords	-11.4325
None	-11.4325
ArrayIndex	-11.4327
Cross	-11.433
FFFF	-11.4331
▁outputFile	-11.4332
▁dfs	-11.4333
▁getSession	-11.4333
unc	-11.4334
Indexable	-11.4335
AtIndex	-11.4335
fold	-11.4335
SyntaxException	-11.4344
AF	-11.4345
▁Reader	-11.4346
rep	-11.4352
▁admin	-11.4353
▁byteBuffer	-11.4354
dispatch	-11.4365
▁sourceFile	-11.437
upper	-11.4374
consistency	-11.4375
行	-11.4375
SCALE	-11.4375
truncate	-11.4375
Discard	-11.4375
extra	-11.4375
storm	-11.4375
▁'\''	-11.4375
Verify	-11.4375
NEWLINE	-11.4375
MessagingEngine	-11.4375
foo	-11.4376
struct	-11.4376
EFERRED	-11.4376
OrWhitespace	-11.4376
LOGICAL	-11.4377
CWSI	-11.4377
▁restart	-11.4378
getCanonicalPath	-11.4381
▁leaf	-11.4382
waitFor	-11.4383
Aliases	-11.4383
▁patch	-11.4383
Fn	-11.4385
doclet	-11.4386
▁Unsupported	-11.4387
▁Xbase	-11.4387
MessageType	-11.4389
}")	-11.4392
async	-11.4393
ForTest	-11.4394
berOfObjectives	-11.4394
SAXException	-11.4396
▁XPath	-11.4396
displayName	-11.4397
Union	-11.44
▁td	-11.4401
Crypto	-11.4405
Directories	-11.4406
▁appendable	-11.4407
▁nm	-11.4408
▁adapt	-11.4418
JobExecution	-11.442
▁FS	-11.4429
apiKey	-11.4429
▁annotationType	-11.4429
▁HttpRequest	-11.4433
entering	-11.4437
+1);	-11.444
▁ba	-11.4441
▁pairs	-11.4441
▁included	-11.4441
▁OWL	-11.4441
Generation	-11.4442
War	-11.4443
▁"="	-11.4449
▁"0"	-11.4453
xen	-11.4464
▁INode	-11.4464
▁WebApplication	-11.4464
▁sending	-11.4474
Rec	-11.4475
▁services	-11.4478
▁tenant	-11.4479
04	-11.4482
/2	-11.4482
▁Core	-11.4486
BS	-11.4488
baseDir	-11.4488
▁locked	-11.4491
Outline	-11.4494
▁fp	-11.4502
Share	-11.4502
]*	-11.4503
crypt	-11.451
▁MIN	-11.4511
Attach	-11.4513
deliver	-11.4518
▁rotation	-11.4519
ln	-11.452
▁secret	-11.452
Milliseconds	-11.4522
messaging	-11.4523
Guard	-11.4524
STATIC	-11.4524
Mojo	-11.4524
Cassandra	-11.4524
BOUND	-11.4524
SECURITY	-11.4524
Business	-11.4524
PROTOCOL	-11.4524
Skipped	-11.4524
Touch	-11.4524
Transient	-11.4524
Parm	-11.4524
▁JspException	-11.4526
Promise	-11.4527
pixel	-11.4529
FLOW	-11.4529
Observable	-11.4529
Analyzer	-11.453
relative	-11.453
True	-11.4531
▁click	-11.4533
bitmap	-11.4535
▁validator	-11.4538
▁executeList	-11.4543
▁sources	-11.4543
ToIndex	-11.4544
ToInt	-11.4544
ipped	-11.4545
▁ready	-11.4547
▁ByteBuf	-11.4548
pk	-11.4548
VAR	-11.4552
▁unsetresource	-11.4553
DoubleVector	-11.4554
RPC	-11.4554
▁wildcard	-11.4554
There	-11.4555
▁UIComponent	-11.4559
setTarget	-11.4567
was	-11.4569
EntityId	-11.457
BC	-11.4571
][0]	-11.4575
▁acl	-11.4579
▁endTime	-11.4579
Seed	-11.4583
▁ancestor	-11.4583
We	-11.4583
pd	-11.4594
mol	-11.4597
▁3,	-11.4598
preview	-11.4601
▁Virtual	-11.4606
▁"1:	-11.4606
getMain	-11.4608
▁seg	-11.461
getDevice	-11.4611
▁Persistence	-11.4612
▁extend	-11.4615
ToLong	-11.4622
▁actions	-11.4623
graphic	-11.4623
seg	-11.4624
Pixels	-11.463
Customer	-11.4632
rollback	-11.4633
getting	-11.4634
▁dao	-11.4637
▁writing	-11.4638
Expiration	-11.4644
FT	-11.4645
isInterface	-11.4645
▁Injection	-11.4653
▁plus	-11.4654
▁gson	-11.4657
DefaultValue	-11.4658
Detect	-11.4661
Square	-11.4661
SourceFile	-11.4662
retrieve	-11.4669
Clip	-11.467
▁creation	-11.4672
outputDir	-11.4673
crl	-11.4674
、	-11.4675
Paragraph	-11.4675
TIMESTAMP	-11.4675
deprecation	-11.4675
▁multiplier	-11.4675
Artwork	-11.4675
Discriminator	-11.4675
WEEK	-11.4675
exclusive	-11.4675
suggest	-11.4675
ctor	-11.4675
▁initialization	-11.4677
▁probably	-11.4677
▁oid	-11.4677
CommerceOrder	-11.4678
Interaction	-11.4678
▁corresponding	-11.4679
(0.0	-11.4679
ByResourceGroup	-11.4679
CHANGED	-11.468
compress	-11.4682
`	-11.4683
commonspec	-11.4684
could	-11.4685
Cnt	-11.4686
▁minutes	-11.4686
▁norm	-11.4687
▁clause	-11.4689
▁There	-11.4693
helper	-11.4693
hdr	-11.4696
▁OS	-11.4697
FieldDescriptor	-11.4699
MessageFormat	-11.4699
executeUpdate	-11.4701
▁writeString	-11.4701
▁Store	-11.4703
SecretKey	-11.4709
9:	-11.471
worker	-11.4714
▁findAll	-11.4715
going	-11.4718
TaskStatus	-11.4718
MessageInfo	-11.472
▁mVisitor	-11.4723
Normal	-11.4735
mutation	-11.4737
▁FieldInfo	-11.4738
jcr	-11.4739
mot	-11.4741
Too	-11.4744
HttpServer	-11.4745
▁plain	-11.4752
▁statusCode	-11.4755
setIs	-11.4757
▁objectClass	-11.4758
▁mapped	-11.476
▁stopped	-11.4762
("-"	-11.4763
DefinitionId	-11.4765
▁Skip	-11.4773
OrBuilder	-11.4776
▁FileWriter	-11.4777
▁SP	-11.4778
Devices	-11.4779
setHeader	-11.4779
JavaClass	-11.478
timeZone	-11.4785
NextOptions	-11.4785
▁{@	-11.4786
▁pageContext	-11.4797
▁bp	-11.4798
norm	-11.48
▁Interval	-11.4803
#"	-11.4803
entityType	-11.4808
TOP	-11.481
allowed	-11.4811
deploy	-11.4811
OptionValue	-11.4812
▁absolute	-11.4812
declaring	-11.4822
concurrent	-11.4825
HealthCheck	-11.4826
FACTOR	-11.4827
ency	-11.4827
▁decimal	-11.4827
Compilation	-11.4828
follow	-11.4829
Purchase	-11.4829
一	-11.4829
Balance	-11.4829
Facade	-11.4829
Descendant	-11.4829
▁appropriate	-11.4829
ASCENDING	-11.4829
Tensor	-11.4829
Summaries	-11.4829
propagate	-11.4829
IMPORT	-11.483
JDK	-11.483
embed	-11.483
LESS	-11.483
HASH	-11.483
Factories	-11.4832
sendMessage	-11.4833
({"	-11.4833
MA	-11.4833
Dirty	-11.4833
▁runner	-11.4834
ATOR	-11.4834
ErrorHandler	-11.4837
blk	-11.4838
generic	-11.4839
binary	-11.4841
addElement	-11.4842
literal	-11.4843
▁reserved	-11.4843
operator	-11.4843
Instantiation	-11.4843
origin	-11.4845
grpc	-11.4847
▁ce	-11.4848
▁buffered	-11.4848
▁oos	-11.4849
JobId	-11.4849
StrLen	-11.4849
Wildcard	-11.485
Opcode	-11.4851
kam	-11.4852
▁da	-11.4852
Dom	-11.4855
deleted	-11.4855
CM	-11.4857
registered	-11.4858
numBytes	-11.4859
NL	-11.486
Pub	-11.4861
▁Bits	-11.4861
StatusCode	-11.4865
Configure	-11.4865
srcOffset	-11.4866
COM	-11.4869
▁peek	-11.4871
▁Unicode	-11.4873
getColumns	-11.4883
SitePath	-11.4889
▁lambda	-11.4891
▁abort	-11.4891
REF	-11.4892
▁association	-11.4893
getDomain	-11.4894
▁escaped	-11.4896
▁detail	-11.4896
tok	-11.4898
hose	-11.4899
Warnings	-11.49
▁Const	-11.4903
KeyPair	-11.4907
flag	-11.4907
Frames	-11.4909
Enclosing	-11.4912
▁decoder	-11.4914
Whitespace	-11.4916
getTransaction	-11.4917
Namespaces	-11.4919
getPackageName	-11.492
JM	-11.4925
userName	-11.4931
RequestListener	-11.4933
PropertyKey	-11.4936
aliases	-11.4945
▁40	-11.4948
▁latest	-11.4952
ActionListener	-11.4953
▁6)	-11.4958
bucketName	-11.496
cpu	-11.4962
Placement	-11.4964
▁10)	-11.4967
getPayload	-11.4971
OPTION	-11.4976
LogLevel	-11.4981
NAMES	-11.4981
EST	-11.4982
▁slash	-11.4985
traverse	-11.4985
foreign	-11.4985
70	-11.4985
Negotiator	-11.4985
IfNecessary	-11.4985
Longitude	-11.4985
SIGNATURE	-11.4985
isotope	-11.4985
occurrence	-11.4985
Lexer	-11.4986
▁Calculate	-11.4986
▁modification	-11.4986
Toolbar	-11.4986
trimmed	-11.4986
RandomAccessFile	-11.4986
bookmark	-11.4986
▁cm	-11.4986
Concat	-11.4986
bool	-11.4987
▁treat	-11.4987
BeanDefinition	-11.499
jobId	-11.4991
▁vec	-11.4992
Continue	-11.4993
▁SIConnection	-11.4994
▁browser	-11.4995
▁Graphics	-11.4996
restore	-11.4997
heckReturnValue	-11.4998
Colon	-11.4999
▁had	-11.4999
dfs	-11.4999
combine	-11.5002
▁An	-11.5002
dimension	-11.5003
cipher	-11.5005
modified	-11.5005
deactivate	-11.5005
▁Timestamp	-11.5006
SessionId	-11.5006
▁beanName	-11.501
▁fr	-11.5013
▁END	-11.5013
prime	-11.5015
▁EList	-11.5016
▁'{}'",	-11.5022
▁care	-11.5024
vec	-11.5024
InputFormat	-11.5027
▁analysis	-11.5029
det	-11.5029
Adj	-11.503
5:	-11.5034
ame	-11.5041
Rtf	-11.5041
86	-11.5042
58	-11.5043
getOutputStream	-11.5044
Iteration	-11.5044
▁Geo	-11.5045
updated	-11.5051
INode	-11.5052
▁rank	-11.5053
trait	-11.5058
siteRoot	-11.5062
▁parameterized	-11.5063
Spans	-11.5063
▁XAException	-11.5068
▁days	-11.5069
addLast	-11.5078
▁explicit	-11.5078
▁REST	-11.5082
reaction	-11.5083
▁logic	-11.5084
TextView	-11.5087
VersionRequest	-11.5093
96	-11.5098
▁par	-11.5098
StatementBuilder	-11.5099
actor	-11.51
DeclaredMethod	-11.5102
▁getConnection	-11.5103
Streaming	-11.5109
getAvailable	-11.511
*2	-11.5115
emptySet	-11.5116
PG	-11.5117
▁composite	-11.5119
getStringValue	-11.5123
▁generat	-11.5124
▁getLogger	-11.5124
ComputeNode	-11.5125
MessageStore	-11.5128
Saml	-11.5132
▁broadcast	-11.5139
▁pane	-11.5141
getAsString	-11.5142
DIRECT	-11.5144
分	-11.5144
Traversal	-11.5144
ESCAPE	-11.5144
implicit	-11.5144
Retries	-11.5144
Mismatch	-11.5144
NameValuePair	-11.5144
Performance	-11.5144
Failover	-11.5145
authority	-11.5145
percent	-11.5145
▁JMSException	-11.5146
CHARSET	-11.5146
▁BORDER	-11.5147
▁raster	-11.5148
TrustManager	-11.5149
Grouping	-11.515
setupDefault	-11.5152
▁activate	-11.5153
▁InvalidArgument	-11.5153
▁producer	-11.5153
TopLevel	-11.5155
setContext	-11.5155
▁numRows	-11.5158
Sys	-11.5159
appear	-11.5162
Rfc	-11.5165
family	-11.5167
Google	-11.5167
Qu	-11.5168
lhs	-11.5169
override	-11.5169
fieldType	-11.5169
▁git	-11.517
▁cloned	-11.5173
▁bmd	-11.5176
PrintStream	-11.5177
wire	-11.5177
Discover	-11.5178
FTP	-11.5181
Bonds	-11.5183
Xsd	-11.5183
▁Render	-11.5185
ByteOrder	-11.5187
ItemId	-11.5187
▁bonds	-11.519
bufferSize	-11.5195
EventAttributes	-11.5196
outputStream	-11.5196
▁advance	-11.5196
Sending	-11.5196
▁rate	-11.5201
Inf	-11.5202
CRL	-11.5203
▁Modifier	-11.5203
Mix	-11.5207
▁kill	-11.5208
▁pk	-11.521
▁Composite	-11.5211
CUD	-11.5211
10:	-11.5214
▁findByC	-11.5227
Cor	-11.5227
PackageManager	-11.523
▁checkFor	-11.5233
rand	-11.5235
IpAddress	-11.5236
tcp	-11.5237
Hive	-11.5239
permission	-11.5244
Objective	-11.5249
▁Tile	-11.5252
periodInfo	-11.5255
▁cont	-11.5255
train	-11.5256
bus	-11.5258
RegEx	-11.5262
metrics	-11.5263
getGeneric	-11.5266
▁vc	-11.5266
Tokenizer	-11.5267
LogRecord	-11.5269
Gregorian	-11.527
▁snmp	-11.5271
MainRecord	-11.5272
matrixPosition	-11.5276
appendChild	-11.5279
▁getCms	-11.5282
getNodeType	-11.5288
getDuration	-11.5288
COL	-11.5293
primary	-11.5293
workspace	-11.5294
57	-11.5295
Descriptions	-11.5299
Take	-11.5299
Suite	-11.5303
▁vars	-11.5303
▁rd	-11.5303
Tracer	-11.5305
measure	-11.5305
built	-11.5305
Benchmark	-11.5305
DESTINATION	-11.5305
Rollback	-11.5305
Ancestor	-11.5305
Creating	-11.5305
Frequency	-11.5305
activation	-11.5306
probability	-11.5306
alphabet	-11.5306
visibility	-11.5306
Vendor	-11.5306
Like	-11.5306
Incoming	-11.5306
REGEX	-11.5306
divisor	-11.5306
Tooltip	-11.5306
Docker	-11.5306
gwt	-11.5306
tango	-11.5307
Prediction	-11.5307
acl	-11.5308
produce	-11.5308
getOriginal	-11.531
Normalized	-11.5311
getChildNodes	-11.5311
delivery	-11.5311
▁StackTrace	-11.5312
gp	-11.5313
juli	-11.5315
Appendable	-11.5315
▁projection	-11.5316
▁hours	-11.5316
▁Sort	-11.5316
▁fe	-11.5317
▁executeCreate	-11.5318
stylesheet	-11.5318
▁vpn	-11.5319
Deploy	-11.532
▁going	-11.5322
hide	-11.5325
ValueExpression	-11.5327
▁thing	-11.5328
WebDriver	-11.5329
Linear	-11.5329
inject	-11.5332
country	-11.5333
When	-11.5334
66	-11.5334
verbose	-11.5334
divide	-11.5335
written	-11.5336
widget	-11.5336
Refs	-11.534
▁adGroup	-11.5342
imply	-11.5343
getActivity	-11.5343
▁dependent	-11.5344
Lang	-11.5344
JvmTypeReference	-11.5344
▁secure	-11.5345
DAYS	-11.5345
▁wb	-11.535
▁anchor	-11.535
UpdateParameters	-11.5352
own	-11.5354
swap	-11.5356
▁qr	-11.5357
▁procedure	-11.5363
ItemStream	-11.5369
▁deleteresources	-11.537
RATE	-11.5375
▁gradient	-11.5383
▁LocalDateTime	-11.5386
▁instant	-11.5388
▁dec	-11.539
▁registryName	-11.539
▁objectName	-11.5391
matched	-11.5392
Transactional	-11.5393
▁JsonArray	-11.5396
getTopic	-11.5398
▁UnsupportedE	-11.54
▁Cookie	-11.5407
Band	-11.5415
400	-11.5416
▁pts	-11.5417
gui	-11.5417
addresses	-11.5428
▁resourceType	-11.5431
▁isSet	-11.5433
▁rename	-11.5436
▁DateFormat	-11.5436
ToBe	-11.5441
Light	-11.5443
Portal	-11.5445
▁ser	-11.545
XY	-11.5453
Within	-11.5464
Until	-11.5468
▁prior	-11.5469
RoaringBitmap	-11.5469
SEARCH	-11.5469
ENGLISH	-11.5469
categories	-11.5469
fieldStuff	-11.5469
▁carry	-11.5469
Strict	-11.5469
Nested	-11.5469
Keras	-11.547
Small	-11.547
▁ZipEntry	-11.547
▁very	-11.547
IfNeeded	-11.5471
▁overflow	-11.5471
POINT	-11.5471
▁'9'	-11.5471
cardinality	-11.5471
▁SVG	-11.5472
Leading	-11.5473
CProductId	-11.5473
Serialized	-11.5474
▁those	-11.5475
getImage	-11.5477
JarEntry	-11.5486
▁implemented	-11.5487
overlay	-11.5488
Tok	-11.549
branch	-11.5502
license	-11.5503
▁excluded	-11.5503
FFDC	-11.5504
tick	-11.5508
enter	-11.551
most	-11.551
▁getInt	-11.5512
IDENTITY	-11.5513
OpenCms	-11.5514
Ack	-11.5515
StateHandle	-11.5515
▁internalRequest	-11.5522
FailureException	-11.553
getUnique	-11.5534
▁realm	-11.5535
ory	-11.5536
▁desired	-11.5538
xid	-11.5539
▁bw	-11.5543
ingletonList	-11.5543
price	-11.5544
saw	-11.5547
Shadow	-11.5549
isAbsolute	-11.5551
OfDay	-11.5553
Fingerprint	-11.5555
▁dm	-11.556
ace	-11.556
▁ObjectMapper	-11.5561
▁attach	-11.5565
▁bindings	-11.557
SB	-11.5574
Stamp	-11.5575
docs	-11.5577
▁Insert	-11.5577
Behaviors	-11.5578
packageName	-11.5584
▁beanClass	-11.5586
▁txn	-11.5587
readValue	-11.5588
▁ct	-11.5589
▁leave	-11.5589
BACK	-11.5593
▁CmsProperty	-11.5595
grammar	-11.5596
▁newValues	-11.5598
elt	-11.5599
Afp	-11.5601
▁CR	-11.5601
▁DBID	-11.5605
▁verbose	-11.5607
ANT	-11.5609
tasks	-11.5612
▁Amazon	-11.562
getCell	-11.563
convertTo	-11.563
walk	-11.563
▁cclass	-11.5632
▁backend	-11.5632
IZED	-11.5633
setLayout	-11.5634
▁CmsObject	-11.5634
CONNECT	-11.5634
Hdr	-11.5635
getTags	-11.5635
BIG	-11.5636
。	-11.5636
GAUGE	-11.5636
Arithmetic	-11.5636
Neighbour	-11.5636
PROVIDER	-11.5636
Quantity	-11.5636
Slave	-11.5636
▁everything	-11.5636
▁temporal	-11.5636
COMMAND	-11.5636
Cycle	-11.5636
('\\'	-11.5636
inverse	-11.5636
fatal	-11.5636
Continuation	-11.5637
▁expired	-11.5637
buildingFunction	-11.5637
MeasureEClass	-11.5639
Provisioning	-11.5639
Design	-11.564
magic	-11.5641
Bag	-11.5643
Unsafe	-11.5643
typedArray	-11.5644
wise	-11.5647
▁DMatrix	-11.5647
LocalTime	-11.5647
▁metaModel	-11.565
▁guid	-11.5654
take	-11.5658
▁etc	-11.5658
(1000	-11.566
TypeEnumEEnum	-11.5663
▁"</	-11.567
MAIN	-11.5672
▁abs	-11.5672
▁JsonToken	-11.5672
fixed	-11.5675
jvm	-11.5681
Try	-11.5681
utc	-11.5682
Prob	-11.5686
ProjectTask	-11.5686
eeName	-11.5693
▁broker	-11.5693
▁far	-11.5694
▁shadow	-11.5696
seen	-11.5697
setTitle	-11.5698
contents	-11.5698
Original	-11.5699
unmarshal	-11.5701
ResourcePath	-11.5702
Costs	-11.5707
DST	-11.5708
▁Sarl	-11.5712
▁el	-11.5713
startIndex	-11.5714
Room	-11.5714
normal	-11.5715
▁bufferIndex	-11.5716
▁IR	-11.5717
▁locator	-11.5718
▁inst	-11.5719
Git	-11.572
▁ArrayUtil	-11.5727
mutations	-11.5728
oy	-11.5729
Letter	-11.5732
getGeometry	-11.5735
getSql	-11.5738
▁chunks	-11.5741
▁Determine	-11.5742
processed	-11.5743
78	-11.5748
superClass	-11.575
▁replication	-11.5752
"".	-11.5753
▁des	-11.5754
▁program	-11.5758
▁rgb	-11.576
dec	-11.576
lab	-11.5762
getProp	-11.5768
finderPath	-11.5769
getFields	-11.577
LU	-11.5773
groupName	-11.5774
ProcessInstance	-11.5777
1]	-11.5778
▁unset	-11.5781
▁lazy	-11.5784
▁upperBound	-11.5788
mat	-11.5791
EndOf	-11.5791
▁Bitmap	-11.5792
Watcher	-11.5793
▁queryBuilder	-11.5795
▁?>>	-11.5801
Alternative	-11.5801
Anchor	-11.5803
Gallery	-11.5804
Retention	-11.5805
Assessment	-11.5805
用	-11.5806
下	-11.5806
campaign	-11.5806
CommerceWishList	-11.5806
Coverage	-11.5806
Ignoring	-11.5806
PERSISTENT	-11.5806
FUNCTION	-11.5806
potential	-11.5806
routine	-11.5806
CUSTOM	-11.5806
MEDIA	-11.5806
pojo	-11.5806
SOAP	-11.5806
Team	-11.5806
Requirement	-11.5806
▁meth	-11.5807
VoltDB	-11.5807
scaling	-11.5807
PubSub	-11.5807
dtm	-11.5807
EList	-11.5808
keyspace	-11.5808
texture	-11.5808
▁outside	-11.5811
▁classloader	-11.5811
DATABASE	-11.5811
FileSize	-11.5812
DateFormat	-11.5813
▁Joiner	-11.5814
68	-11.5815
Some	-11.5819
CompanyId	-11.582
▁enumerator	-11.5821
▁quality	-11.5825
▁supplier	-11.5826
▁unicode	-11.5826
win	-11.5829
ManagedObject	-11.5835
Inside	-11.5836
lin	-11.5838
wp	-11.5841
▁JsonElement	-11.5844
zz	-11.5847
Quotes	-11.5849
▁beans	-11.585
integer	-11.5852
InetAddress	-11.5853
stringValue	-11.5853
▁coord	-11.5856
pEntity	-11.5857
rib	-11.5857
PrintWriter	-11.586
getLocalName	-11.586
native	-11.5862
fullName	-11.5863
Online	-11.5863
fld	-11.5865
TypeDescriptor	-11.5867
Kam	-11.587
▁artifactId	-11.5871
Relationships	-11.5872
rgb	-11.5872
Closeable	-11.5877
▁enter	-11.5882
▁BYTE	-11.5883
▁red	-11.589
▁note	-11.589
Steps	-11.589
▁visited	-11.589
▁comparison	-11.5893
▁getData	-11.5897
RFC	-11.5898
▁5)	-11.59
:\	-11.5904
onSuccess	-11.5905
ToRemove	-11.5907
metaData	-11.5908
▁'['	-11.5914
▁---------	-11.5915
▁GL	-11.5916
rev	-11.5917
setLast	-11.5918
▁GrayF	-11.5921
Chunks	-11.5923
portal	-11.5927
62	-11.5928
resolver	-11.5929
tribut	-11.593
▁Big	-11.5935
47	-11.5936
EQ	-11.5938
Syn	-11.594
att	-11.5944
▁att	-11.5946
Matched	-11.5947
▁grouping	-11.5954
▁Debug	-11.5954
minus	-11.5956
▁subscribe	-11.5959
ules	-11.5966
▁alignment	-11.5968
▁background	-11.597
▁RequestBuilder	-11.5971
▁Promise	-11.5974
setLength	-11.5976
▁Alluxio	-11.5978
JNDI	-11.5978
Major	-11.5978
pivot	-11.5978
ActionPerformed	-11.5978
INCLUDE	-11.5978
MODULE	-11.5978
SHIFT	-11.5978
pRqVs	-11.5978
时	-11.5978
MtasSolr	-11.5978
camera	-11.5978
(',');	-11.5978
Boot	-11.5978
▁'|'	-11.5978
有	-11.5978
green	-11.5978
shell	-11.5978
Stopwatch	-11.5978
8601	-11.5979
▁good	-11.5979
Sense	-11.5979
Enter	-11.5979
Vault	-11.5981
intuit	-11.5983
▁raf	-11.5983
▁feed	-11.5985
createQuery	-11.5985
▁viewport	-11.5985
BinaryOperator	-11.599
("$	-11.5992
achmentFileEntry	-11.5993
Configured	-11.5994
Taglet	-11.5996
stride	-11.5996
getProxy	-11.6003
Iam	-11.6005
▁aggregate	-11.6007
soap	-11.6007
▁adaptor	-11.6009
▁placeholder	-11.601
▁nodeId	-11.602
▁eventType	-11.6021
ommerceWarehouse	-11.6021
▁sketch	-11.6024
bounds	-11.6029
criteria	-11.603
logging	-11.603
section	-11.603
checkValid	-11.6031
precision	-11.6031
alpha	-11.6031
tenant	-11.6032
vm	-11.6032
topology	-11.6033
portlet	-11.6034
▁issuer	-11.6034
▁entityManager	-11.6037
▁listNext	-11.6038
FIELDS	-11.6041
geom	-11.6042
CmsUUID	-11.6043
dao	-11.6043
ProcessInfo	-11.6049
CN	-11.6052
67	-11.6053
▁wi	-11.6059
▁card	-11.606
▁mime	-11.606
▁syntax	-11.6061
tools	-11.6067
cb	-11.607
]=	-11.6071
▁intersection	-11.6072
Generics	-11.6073
HostName	-11.6077
▁writable	-11.6077
▁Jenkins	-11.6077
Mime	-11.6078
anno	-11.608
▁align	-11.6082
▁fieldValue	-11.6083
appendOptional	-11.6086
aintenanceWindow	-11.6087
WithCode	-11.6088
DataSegment	-11.6092
prod	-11.6094
Sh	-11.6104
OAuth	-11.611
TableModel	-11.6114
ResourceRequest	-11.6114
annotations	-11.6121
▁compress	-11.6124
Tabs	-11.6125
unregister	-11.6125
▁increase	-11.6127
▁family	-11.6128
WebSocket	-11.6129
\\\\	-11.6129
▁tagName	-11.6141
Fleet	-11.6142
toInt	-11.6142
Construction	-11.6143
den	-11.6143
Pin	-11.6144
▁Serialization	-11.6144
▁sv	-11.6147
Motion	-11.615
Regular	-11.6153
DECIMAL	-11.6153
distribution	-11.6153
▁further	-11.6153
Quality	-11.6153
Severity	-11.6153
Wiki	-11.6153
IDENTIFIER	-11.6153
SKIP	-11.6153
FONT	-11.6153
average	-11.6153
▁sense	-11.6153
TILE	-11.6154
Jingle	-11.6154
▁latch	-11.6154
vendor	-11.6154
BOX	-11.6154
canonical	-11.6156
PH	-11.6156
▁GeoPoint	-11.6156
▁overwrite	-11.6157
Inherited	-11.6157
▁InputSource	-11.6158
centre	-11.6159
nb	-11.616
getAtomCount	-11.6164
▁ticket	-11.6165
▁atomContainer	-11.6165
Sym	-11.6166
GA	-11.6168
▁imageSearch	-11.6169
Localization	-11.6169
▁getPath	-11.617
Launcher	-11.6171
▁combined	-11.6172
▁Concurrent	-11.6174
▁Ldap	-11.6176
▁objectMapper	-11.6177
;}	-11.618
:%	-11.6183
▁rp	-11.6184
▁outline	-11.6184
Specs	-11.6188
▁world	-11.619
tagged	-11.6191
+=	-11.6192
Red	-11.6196
▁views	-11.6196
▁pageSize	-11.6197
▁locate	-11.6197
errorcode	-11.6198
▁StrUtil	-11.6199
▁documents	-11.62
certificate	-11.62
GrayF	-11.6202
▁INVALID	-11.6202
tex	-11.6202
acquire	-11.6211
WHERE	-11.6212
phase	-11.6212
▁Audit	-11.6214
ative	-11.6215
▁tracker	-11.6216
INDArray	-11.6217
▁getElement	-11.6219
▁href	-11.622
RUN	-11.622
Certificates	-11.622
IllegalState	-11.6222
▁dev	-11.6224
▁keyStore	-11.6225
Defines	-11.6227
finished	-11.6229
000000	-11.623
strip	-11.623
Broadcast	-11.6238
Circle	-11.6241
▁DocumentBuilder	-11.6242
REST	-11.6243
best	-11.6248
arameterizedHost	-11.6249
▁sr	-11.625
▁LONG	-11.625
GE	-11.6252
vocab	-11.6254
▁poll	-11.6262
▁FileReader	-11.6262
▁delim	-11.6264
JobStatus	-11.6264
▁leading	-11.6265
Trim	-11.6271
anc	-11.6271
▁Example	-11.6272
fect	-11.6272
observe	-11.6281
▁addField	-11.6282
parentOf	-11.6284
Processed	-11.6289
inst	-11.6296
getPrefix	-11.6297
▁dn	-11.63
▁dead	-11.6306
89	-11.6306
Gap	-11.6311
Spaces	-11.6312
ute	-11.6312
▁cacheName	-11.6318
parseDouble	-11.6319
▁pages	-11.6319
rules	-11.632
▁Lazy	-11.6324
Attached	-11.6325
▁STATUS	-11.6327
EventHandler	-11.6329
Detection	-11.633
▁represent	-11.633
▁splits	-11.6331
Stopped	-11.6331
▁Chrono	-11.6331
▁modifier	-11.6332
Average	-11.6332
Agreement	-11.6332
CONTAINER	-11.6332
historic	-11.6332
DIRECTORY	-11.6332
Translator	-11.6332
▁Ensure	-11.6332
中	-11.6332
Lexicon	-11.6332
flickr	-11.6332
SYNC	-11.6332
定	-11.6332
▁Gson	-11.6332
Probability	-11.6332
Capability	-11.6332
Stub	-11.6334
ConnectGateway	-11.6335
Charge	-11.6335
▁div	-11.6335
Installation	-11.6335
remainder	-11.6336
Mono	-11.6341
▁cross	-11.6342
tran	-11.6343
▁defaultFlags	-11.6346
OrNull	-11.6348
Markers	-11.6348
uncompressed	-11.6351
▁analyze	-11.6352
WAS	-11.6352
▁HttpSession	-11.6353
▁Initialize	-11.6355
▁colon	-11.6356
WARN	-11.6358
▁Named	-11.6358
AsLong	-11.6364
▁startup	-11.6369
▁Subject	-11.6371
EntityRole	-11.6375
FINER	-11.6381
CmsWorkplace	-11.6385
lineTo	-11.6386
▁pref	-11.639
attachment	-11.6393
definition	-11.6396
attach	-11.6396
▁entityId	-11.6396
negative	-11.6397
generator	-11.6398
Ovh	-11.6398
drop	-11.6399
77	-11.64
recovery	-11.6401
Working	-11.6401
▁Closure	-11.6401
{1}	-11.6402
▁regular	-11.6407
getMember	-11.6409
parseBoolean	-11.6411
spark	-11.6412
MetricName	-11.6412
▁gap	-11.6414
+1;	-11.6414
plural	-11.6414
▁Dimension	-11.6418
lineSeparator	-11.6418
▁callable	-11.6419
normalized	-11.6423
▁scopes	-11.6425
download	-11.6432
▁contained	-11.6438
Scaling	-11.6443
Tri	-11.6444
▁quick	-11.6445
▁imag	-11.6452
getColor	-11.6459
InsnNode	-11.6462
serviceEndpoint	-11.6464
▁specification	-11.6466
▁https	-11.6466
members	-11.6467
=").	-11.6467
▁Kundera	-11.6468
errorMessage	-11.6469
AccountInner	-11.6469
SEC	-11.6469
▁getState	-11.6477
Offline	-11.6478
toURL	-11.6486
alloc	-11.6486
DatabaseType	-11.6496
▁Azure	-11.65
Visit	-11.6502
▁clusterName	-11.6504
▁HttpClient	-11.6505
resourceId	-11.6506
copyFrom	-11.6506
theta	-11.6508
Modifiers	-11.6508
Rev	-11.6508
SocketChannel	-11.651
That	-11.6513
estimate	-11.6513
▁pull	-11.6514
Suppress	-11.6514
NEGATIVE	-11.6514
illegal	-11.6514
HORIZONTAL	-11.6514
bridge	-11.6514
mandatory	-11.6514
Produces	-11.6514
▁exceed	-11.6514
confirm	-11.6514
front	-11.6514
suite	-11.6514
Either	-11.6514
Footer	-11.6514
severe	-11.6514
Percentage	-11.6514
Workbook	-11.6515
Cleanup	-11.6515
circuit	-11.6515
speed	-11.6516
evaluation	-11.6516
▁RandomVariable	-11.6516
▁getImage	-11.6517
▁disconnect	-11.6519
Deep	-11.6521
▁inputA	-11.6522
contact	-11.6523
▁queries	-11.6525
▁encrypted	-11.6528
▁executeDelete	-11.6528
Plural	-11.6529
qr	-11.653
▁dispatcher	-11.6531
▁gp	-11.6534
VarQueryParams	-11.6537
hasRemaining	-11.6538
▁attributeValue	-11.6538
▁deep	-11.654
Javadoc	-11.6541
Startup	-11.6544
▁sm	-11.6548
Tcp	-11.6553
getAnnotations	-11.6555
getSegment	-11.6555
81	-11.6568
FormField	-11.6569
Minute	-11.6572
▁MBean	-11.6572
▁dictionary	-11.6573
setVisibility	-11.6574
▁issues	-11.6575
69	-11.6575
MODEL	-11.6579
Building	-11.658
Submit	-11.658
▁EOFException	-11.6581
networkInterface	-11.6582
▁cbuf	-11.6584
audit	-11.6586
indices	-11.6586
person	-11.6587
snapshot	-11.6587
attempt	-11.6587
constant	-11.659
▁orientation	-11.659
▁"["	-11.6593
▁beta	-11.6593
indent	-11.6598
ColumnNames	-11.6598
▁strict	-11.66
mimeType	-11.6605
▁roll	-11.6607
aster	-11.6608
("["	-11.6612
Gene	-11.6619
virtual	-11.6622
▁attrName	-11.6626
fax	-11.6629
CacheEntry	-11.6635
variableName	-11.6635
▁decl	-11.6639
AnnotationValue	-11.6645
▁vertices	-11.6647
lit	-11.6649
buff	-11.6654
OLD	-11.6656
nodeId	-11.666
▁statements	-11.6663
Always	-11.6675
Persist	-11.6681
▁trust	-11.6686
ITY	-11.6687
suspend	-11.6689
Minimum	-11.669
▁mediaType	-11.6691
Perm	-11.6693
▁actor	-11.6694
ector	-11.6694
Era	-11.6696
▁authenticate	-11.6697
▁performance	-11.6697
Individual	-11.6699
UNIQUE	-11.6699
置	-11.6699
ACTIVITY	-11.6699
Interpreter	-11.6699
World	-11.6699
latitude	-11.6699
isWarnEnabled	-11.6699
enumeration	-11.6699
▁reflection	-11.6699
footer	-11.67
lemma	-11.67
REQUIRED	-11.67
Have	-11.6701
mock	-11.6701
▁properly	-11.6701
Chat	-11.6703
▁preferences	-11.6704
PoolSize	-11.6704
RAW	-11.6707
Acceptor	-11.6707
DrawerItem	-11.6707
destOffset	-11.6709
▁Iterate	-11.6715
started	-11.6716
intent	-11.6718
▁keystore	-11.6718
AccessControl	-11.6719
DTD	-11.6724
▁entityMetadata	-11.6727
CmsDb	-11.6727
ZoneId	-11.6729
▁timezone	-11.6731
Viewer	-11.6733
05	-11.6734
▁obs	-11.6736
Comments	-11.6737
Graphic	-11.6738
▁Need	-11.6742
FaxJob	-11.6743
DEF	-11.6747
MESSAGES	-11.675
▁assigned	-11.6751
CmsRole	-11.6756
ACK	-11.6756
Atlas	-11.6757
Hold	-11.6757
▁Portlet	-11.6759
▁resourceId	-11.6759
▁patterns	-11.6761
▁itrans	-11.6764
▁toAdd	-11.6769
Need	-11.6769
transition	-11.6776
Wrapped	-11.6777
GVR	-11.6778
slice	-11.6778
video	-11.6778
instant	-11.6778
Comparable	-11.6779
Triggers	-11.678
▁grant	-11.678
usage	-11.6781
setDescription	-11.6783
▁locations	-11.6784
WebApplication	-11.6787
Extend	-11.679
ExecutionContext	-11.6794
getPlugin	-11.6806
▁7;	-11.6809
▁effective	-11.6812
Associations	-11.6813
▁para	-11.6813
=0	-11.6814
▁appender	-11.6815
▁samples	-11.6815
Scoped	-11.6817
▁conflict	-11.6818
Got	-11.6819
getBegin	-11.6822
toMillis	-11.6829
Relations	-11.6829
▁updateWith	-11.6829
▁bos	-11.6831
▁conversation	-11.6831
▁marshaller	-11.6833
RC	-11.6834
targetClass	-11.6835
ItemRequest	-11.6837
ResultInner	-11.6838
ReturnCode	-11.6839
Restart	-11.6843
isSelected	-11.6851
▁DataSet	-11.6854
▁When	-11.6855
getScope	-11.6864
setEntity	-11.6864
▁jobs	-11.6866
issue	-11.6871
SuperClass	-11.6872
▁beginCreateOr	-11.6873
PP	-11.6876
Recorder	-11.6876
dbName	-11.6877
▁`	-11.6878
getIdentity	-11.6879
setOn	-11.6881
aggregator	-11.6887
Occur	-11.6887
Termination	-11.6888
201809.	-11.6888
Analytic	-11.6888
Apptentive	-11.6888
BACKGROUND	-11.6888
CAPACITY	-11.6888
Campaign	-11.6888
SYMBOL	-11.6888
movie	-11.6888
substitute	-11.6888
▁whitespace	-11.6888
ByUuidAnd	-11.6888
SHOW	-11.6888
Wrong	-11.6888
▁Just	-11.6888
Vertical	-11.6888
CANCEL	-11.6888
DOMAIN	-11.6888
CPInstanceUuid	-11.6888
▁rnd	-11.6889
BiFunction	-11.6889
ALTER	-11.6889
Specified	-11.689
▁whole	-11.6892
▁resolution	-11.6892
getRight	-11.6893
Planar	-11.6893
elab	-11.6894
Receive	-11.6895
getActive	-11.6897
VOID	-11.6897
▁jc	-11.69
▁'>'	-11.69
getAsJson	-11.6902
▁unexpected	-11.6904
▁getChild	-11.6904
▁pop	-11.6907
73	-11.6908
oom	-11.6908
▁nn	-11.6909
Ignored	-11.691
Pom	-11.691
factories	-11.6916
OrDefault	-11.6916
OutputFile	-11.6918
jarFile	-11.6919
▁workspaceName	-11.692
Prototype	-11.6921
▁watch	-11.6921
▁mp	-11.6921
Ptr	-11.6921
▁upgrade	-11.6923
▁conv	-11.6924
jsp	-11.6925
▁union	-11.6926
Datastream	-11.6928
Player	-11.693
▁executeUpdate	-11.6931
toPath	-11.6931
queryParam	-11.6939
Successful	-11.6939
41	-11.694
▁xid	-11.694
Signing	-11.6944
Filtered	-11.6949
columnFamily	-11.6955
▁dimension	-11.6956
▁Malformed	-11.6961
▁singleton	-11.6961
()-1)	-11.6967
Checking	-11.6969
("'"	-11.697
translate	-11.6972
wrapped	-11.6974
mapped	-11.6974
switch	-11.6976
▁nextPage	-11.6977
▁dic	-11.6979
editor	-11.6979
BundleContext	-11.698
encrypt	-11.698
Folders	-11.6981
DFS	-11.6981
▁cond	-11.6981
▁idle	-11.6984
▁dr	-11.6986
fis	-11.6988
▁attached	-11.6989
getComponentType	-11.6991
▁Nothing	-11.6997
▁installed	-11.6999
getStorage	-11.7001
ModelImpl	-11.7007
Facebook	-11.701
▁BuildException	-11.701
Counters	-11.7012
TableRow	-11.7013
getCanonical	-11.7015
IX	-11.7019
Supplement	-11.7019
▁getContext	-11.7019
derivX	-11.7019
TCP	-11.702
07	-11.7021
RenderingHints	-11.7021
▁{0}	-11.7023
▁parameterName	-11.7027
▁MessageFormat	-11.7028
componentType	-11.703
HA	-11.7042
▁namespaces	-11.7045
▁related	-11.7057
nil	-11.7058
Suggestion	-11.7058
▁generics	-11.7061
live	-11.7061
Jawr	-11.7075
▁ft	-11.7075
▁give	-11.7079
CONSTRUCTOR	-11.708
POLICY	-11.708
BEFORE	-11.708
MULTI	-11.708
three	-11.708
Concurrency	-11.708
▁letter	-11.7081
seed	-11.7081
THREAD	-11.7081
liborPeriodIndex	-11.7082
▁infer	-11.7082
('=')	-11.7082
Domains	-11.7083
▁moduleName	-11.7083
▁Platform	-11.7083
▁detector	-11.7084
getByte	-11.7084
▁rand	-11.7085
Chooser	-11.7086
Large	-11.7087
Printer	-11.7088
attack	-11.7089
fully	-11.7091
Varargs	-11.7093
▁JPanel	-11.7094
▁stackTrace	-11.7098
▁checkResult	-11.7098
locations	-11.7098
▁findByG	-11.7099
▁customer	-11.7105
dataOffset	-11.7107
(1)=='	-11.7109
ModuleMetaData	-11.711
Thrown	-11.7113
successful	-11.7113
Proc	-11.7123
▁proper	-11.7125
links	-11.7128
▁queryParams	-11.7133
▁tip	-11.7134
VC	-11.7137
png	-11.7139
MBeanServer	-11.7141
CodePoint	-11.7142
entityClass	-11.7145
WR	-11.7149
Authenticated	-11.7152
='"	-11.7159
▁supports	-11.7164
Preferred	-11.7165
={	-11.7166
roll	-11.7169
While	-11.7169
▁Scheduler	-11.717
Malformed	-11.7172
XAException	-11.7175
look	-11.7175
300	-11.7175
maximum	-11.7176
klass	-11.7177
heap	-11.7177
like	-11.7177
▁violation	-11.7185
reversed	-11.7188
▁configFile	-11.7189
▁vectors	-11.719
▁feat	-11.7191
solve	-11.7195
▁ServletContext	-11.7195
eol	-11.72
▁acquire	-11.72
Norm	-11.7203
ItemState	-11.7203
getController	-11.7204
SEP	-11.7207
▁My	-11.7208
variables	-11.721
COMPACT	-11.7216
StyleName	-11.7216
Perform	-11.7219
quot	-11.722
Cookies	-11.7221
Subscriptions	-11.7222
▁avail	-11.7223
DryRun	-11.7224
rating	-11.7229
area	-11.723
▁readObject	-11.7231
ForResource	-11.7237
RowCount	-11.7241
LowerBound	-11.7242
addMethod	-11.7246
mbr	-11.7247
▁Google	-11.7248
getBuild	-11.7248
wrapper	-11.7253
xf	-11.7253
▁ui	-11.7257
▁heartbeat	-11.7258
▁blank	-11.7258
getQualifiedName	-11.726
OrThrow	-11.726
openSession	-11.7262
Expectation	-11.7265
▁team	-11.7265
Suggest	-11.7275
Nucleotide	-11.7276
GLOBAL	-11.7276
INNER	-11.7276
Legacy	-11.7276
Attack	-11.7276
COMPONENT	-11.7276
Closing	-11.7276
DECODABET	-11.7276
ENTRY	-11.7276
Gaussian	-11.7276
Pojo	-11.7276
Through	-11.7276
gamma	-11.7276
serializable	-11.7276
Couchbase	-11.7276
Distinct	-11.7276
Stale	-11.7276
Catch	-11.7276
PASSWORD	-11.7276
foreground	-11.7276
▁beginning	-11.7276
mpxj	-11.7276
HALF	-11.7276
EXPORT	-11.7276
dManagerServices	-11.7276
▁Canal	-11.7276
Trait	-11.7277
Will	-11.7277
BioPAXElement	-11.7277
inspection	-11.7277
▁']'	-11.7277
QueryParameter	-11.7277
Secondary	-11.7278
▁sf	-11.728
▁pub	-11.7283
fit	-11.7284
wsdl	-11.7284
Baseline	-11.7285
▁containing	-11.7285
▁Jdbc	-11.7287
▁blob	-11.7288
Stylesheet	-11.7288
RelativePath	-11.7292
▁previously	-11.7292
authorizer	-11.7293
GMT	-11.7297
getWindow	-11.7298
▁Hierarchical	-11.73
▁steps	-11.7301
▁classInfo	-11.7301
isInitialized	-11.7303
getWorkspace	-11.7305
syslog	-11.7307
JsonDeserializer	-11.7307
Interceptors	-11.7308
PropertyAccessor	-11.7309
[6]	-11.7309
animate	-11.7315
:1:	-11.7315
SU	-11.7319
▁individual	-11.7322
compressed	-11.7326
▁underlying	-11.7327
▁links	-11.7333
▁compact	-11.7334
material	-11.7335
GroupInner	-11.7335
LogFile	-11.7337
discount	-11.7338
RequestMapping	-11.7338
Alt	-11.7339
basisFunction	-11.734
▁pq	-11.7341
▁corpus	-11.7346
▁ParserException	-11.735
>(){}	-11.735
Consumes	-11.735
▁syn	-11.7351
adjust	-11.7353
▁bc	-11.7353
▁pick	-11.7354
PathElement	-11.7355
perm	-11.7356
hp	-11.736
CommandClass	-11.736
reason	-11.7364
▁nfe	-11.7366
addComponent	-11.7367
▁instruction	-11.7371
riplets	-11.7377
duplicate	-11.7378
locator	-11.7378
discard	-11.7379
[{}]	-11.738
modify	-11.738
shard	-11.738
launch	-11.738
%02	-11.7381
IQ	-11.7382
UserAgent	-11.7383
extended	-11.7384
localized	-11.7385
companyId	-11.7386
▁imported	-11.7388
production	-11.7388
▁getCache	-11.739
▁GVR	-11.7391
signed	-11.7392
Aws	-11.7392
StartDate	-11.7392
getEndpoint	-11.7392
haredPreferences	-11.7393
lc	-11.7394
Plugins	-11.7396
Hits	-11.7407
▁question	-11.7413
unable	-11.7419
▁DBException	-11.7421
sender	-11.7423
DBParam	-11.7432
RecordOwner	-11.7435
▁license	-11.7435
▁cld	-11.7436
IDE	-11.7438
mount	-11.744
eInverse	-11.7445
▁lineNumber	-11.7447
ano	-11.7448
▁series	-11.7458
outBuff	-11.7459
▁dialect	-11.7463
DOWN	-11.7467
▁byteArray	-11.7471
Effect	-11.7476
DURATION	-11.7476
expiry	-11.7476
concept	-11.7476
shuffle	-11.7476
▁removing	-11.7476
BUILD	-11.7476
Gauge	-11.7476
POOL	-11.7476
PROXY	-11.7476
RENDER	-11.7476
ZonedDateTime	-11.7476
dayOfWeek	-11.7476
polymer	-11.7476
PublicIPAddress	-11.7476
RoundingMode	-11.7476
Hyper	-11.7476
Latch	-11.7476
Lemma	-11.7476
Formula	-11.7476
readFully	-11.7476
groovy	-11.7476
PKCS	-11.7477
computeIfAbsent	-11.7477
Macro	-11.7477
proceed	-11.7477
createTempFile	-11.7477
SchedulerSupport	-11.7477
Chem	-11.7478
▁CDKException	-11.7478
yes	-11.7478
SIMPLE	-11.7479
(3)	-11.7482
VALID	-11.7484
▁'_'	-11.7485
▁lon	-11.7488
▁exact	-11.7489
REQ	-11.7491
Painter	-11.7498
88	-11.7498
▁superclass	-11.7503
Cli	-11.7503
checkstyle	-11.7504
▁apiKey	-11.7505
▁closeSession	-11.7506
▁nls	-11.7508
SecurityManager	-11.751
TypeMirror	-11.7514
ThreadContext	-11.7514
isSuccess	-11.7518
PlanNode	-11.752
unsafe	-11.7521
encryption	-11.7523
pw	-11.7525
bos	-11.7526
predicates	-11.7527
▁CommercePrice	-11.7528
▁printer	-11.7529
CmsUser	-11.753
ResourceType	-11.7531
▁Should	-11.7532
LogEntry	-11.7534
Merged	-11.7536
gain	-11.7537
▁maxWidth	-11.7538
▁BitSet	-11.7538
sound	-11.754
_8);	-11.7542
▁parallel	-11.7544
Timezone	-11.7548
getActual	-11.7553
Months	-11.7555
+1	-11.7567
▁failures	-11.7568
milli	-11.7573
▁scaled	-11.7575
▁tempFile	-11.758
JDBC	-11.7586
OWL	-11.7588
packet	-11.7588
expand	-11.7588
HC	-11.7589
▁propertyType	-11.7592
resultSet	-11.7592
retval	-11.7594
▁slice	-11.7594
replacement	-11.7596
▁ctxt	-11.7598
triple	-11.7602
Accessible	-11.7603
▁offer	-11.7605
invert	-11.7606
PAR	-11.761
ScrollPane	-11.7619
press	-11.762
▁Android	-11.7623
▁spaceId	-11.7626
srec	-11.763
▁pipe	-11.7634
▁commandLine	-11.7635
onCreate	-11.7645
▁pixels	-11.7651
:{}	-11.7655
then	-11.7655
180	-11.7659
sendError	-11.7663
synchronize	-11.7667
▁appName	-11.7668
▁molecule	-11.7674
▁ServerException	-11.7676
intercept	-11.7678
Poly	-11.7678
HEAD	-11.7679
github	-11.768
如果	-11.768
Ontology	-11.768
commerceWishList	-11.768
ignoring	-11.768
Conflict	-11.768
NUMERIC	-11.768
PureXbase	-11.768
legacy	-11.768
ACCEPT	-11.768
AVAILABLE	-11.768
EXECUTION	-11.768
LISTENER	-11.768
到	-11.768
ListUsageMetrics	-11.768
decision	-11.768
loadBalancer	-11.768
intensity	-11.768
distinct	-11.768
OBJ	-11.768
Good	-11.7681
OptionValueRel	-11.7681
Resp	-11.7681
Spring	-11.7681
synpred	-11.7681
▁compression	-11.7682
▁hard	-11.7682
▁Caster	-11.7683
slide	-11.7683
MANAGER	-11.7683
MeasureSpec	-11.7683
Walker	-11.7684
Sound	-11.7684
▁classPK	-11.7685
mutate	-11.7685
▁correctly	-11.7687
ScreenRecord	-11.7691
Anim	-11.7691
btn	-11.7696
returnType	-11.7701
▁blocking	-11.7702
getMaximum	-11.7703
ClientId	-11.7703
card	-11.7706
▁machine	-11.7707
▁srcOffset	-11.7709
ChildCount	-11.771
▁Unchecked	-11.7712
▁routing	-11.7712
Couldn	-11.7717
▁refer	-11.7721
▁resourcePath	-11.7721
negate	-11.7727
LocalDateTime	-11.7728
▁dp	-11.7733
getDryRun	-11.7735
COMP	-11.7736
getAbsolute	-11.7736
createStatement	-11.7739
lb	-11.774
▁executorService	-11.7743
▁console	-11.7747
▁JsonNode	-11.7747
▁Vec	-11.7748
▁vaultBaseUrl	-11.775
MT	-11.7755
CmsReport	-11.7757
▁strValue	-11.7762
getSecond	-11.7763
▁skipped	-11.7766
lineNumber	-11.7774
svg	-11.7774
▁JDBC	-11.7775
▁iErrorCode	-11.7776
▁maxValue	-11.7785
streamId	-11.7786
IBM	-11.7786
getEncoding	-11.7788
persist	-11.7794
startTime	-11.7799
grant	-11.7799
rank	-11.7799
already	-11.7802
association	-11.7803
DevFailed	-11.7804
primitive	-11.7804
AA	-11.7805
▁PE	-11.7805
▁retries	-11.7805
sink	-11.7808
fPresent	-11.7809
▁capture	-11.7811
that	-11.7812
spaceId	-11.7823
Md	-11.7839
Queued	-11.784
▁touch	-11.7844
FromFile	-11.7848
▁rr	-11.7849
STM	-11.7849
JsonArray	-11.7851
clearCache	-11.7853
IZE	-11.7859
▁maxSize	-11.7863
▁transpose	-11.7864
InUse	-11.7864
caller	-11.7866
grad	-11.7868
71	-11.7873
LL	-11.7883
▁automa	-11.7886
health	-11.7887
MEMBER	-11.7888
SEQUENCE	-11.7888
Verbose	-11.7888
LITERAL	-11.7888
ambiguous	-11.7888
benchmark	-11.7888
▁KNX	-11.7888
▁entire	-11.7888
BLANK	-11.7888
CmsSelectWidget	-11.7888
isSame	-11.7888
sampling	-11.7888
文件	-11.7888
mojo	-11.7889
▁optimize	-11.7889
LDAP	-11.7889
ListenableFuture	-11.7889
ajax	-11.7889
PatchBaseline	-11.7889
naming	-11.7889
STATEMENT	-11.7889
Overflow	-11.7889
REPORT	-11.789
Storable	-11.789
DetectionJob	-11.7891
▁'&'	-11.7891
▁against	-11.7892
soapModel	-11.7892
Disable	-11.7892
▁workUnit	-11.7894
EXISTS	-11.7894
▁Flowable	-11.7895
▁near	-11.7899
Persisted	-11.79
HtmlStyle	-11.7901
OPTIONS	-11.7902
▁commercePrice	-11.7902
PART	-11.7903
Fact	-11.7904
CmsEntity	-11.7904
StorageAccount	-11.7907
Swap	-11.791
WorkItem	-11.7912
▁spaces	-11.7913
$")	-11.7915
HEX	-11.7917
reshape	-11.7919
ParsingException	-11.7921
indicator	-11.7922
▁band	-11.7924
docId	-11.7927
+1,	-11.7927
PerPage	-11.7928
▁marked	-11.7929
ChannelHandler	-11.793
▁drawer	-11.7931
▁dstIndex	-11.7935
setUser	-11.7942
▁geo	-11.7943
TxId	-11.7949
▁payment	-11.7951
Minor	-11.7957
handlers	-11.7961
▁siteName	-11.7965
▁hierarchy	-11.797
PathVariable	-11.7973
Candidates	-11.7974
AppService	-11.7979
SEND	-11.7981
CRC	-11.7983
getReal	-11.7985
INST	-11.7986
rawData	-11.7986
▁reconnect	-11.799
][1]	-11.7991
tagName	-11.7992
kill	-11.7993
▁rx	-11.7994
dsl	-11.7998
Cpo	-11.7999
Kill	-11.8004
getRawType	-11.8004
CmsPublish	-11.8005
▁unescape	-11.8006
▁";"	-11.8007
▁hm	-11.8011
lambda	-11.8017
ancestor	-11.8017
abort	-11.8017
BufferedReader	-11.8018
IE	-11.802
Pause	-11.8024
={}	-11.8024
▁beanType	-11.8025
▁Except	-11.8027
▁scene	-11.8029
Iterations	-11.803
rootDir	-11.8043
TING	-11.8053
Picker	-11.8054
currentValue	-11.8059
▁Drools	-11.8062
▁divide	-11.8065
PropertyDesc	-11.8065
ParameterValue	-11.8067
Parsing	-11.8068
progressListener	-11.8069
toJSON	-11.8072
PageContext	-11.8074
peer	-11.8079
▁navigation	-11.8079
HANDLE	-11.8083
▁mixin	-11.8084
trusted	-11.8086
CmsRelation	-11.8086
ConnectionPool	-11.8087
OnError	-11.8088
Encrypt	-11.8089
▁resume	-11.809
CHANGE	-11.8095
fileContent	-11.8099
pan	-11.81
black	-11.81
getSignature	-11.8101
SUPPORTED	-11.8101
Applied	-11.8101
Billing	-11.8101
Stereo	-11.8101
TENANT	-11.8101
serialVersionUID	-11.8101
▁encountered	-11.8101
Kafka	-11.8101
PERMISSION	-11.8101
REMOTE	-11.8101
Scenario	-11.8101
dummy	-11.8101
guard	-11.8101
Sleep	-11.8101
gateway	-11.8101
tensor	-11.8101
Plot	-11.8101
ComboBox	-11.8101
DONT	-11.8102
TEMP	-11.8102
Zxid	-11.8103
Solr	-11.8105
ENDPOINT	-11.8105
▁ECoordinate	-11.8106
CFG	-11.8106
Stem	-11.8106
isActive	-11.8106
▁classifier	-11.8107
getScript	-11.8108
\">"	-11.8108
Trailing	-11.8111
attrName	-11.8112
EditMode	-11.8113
initiate	-11.8113
startElement	-11.8113
adj	-11.8114
▁clip	-11.8115
CasWebflowCon	-11.8117
enqueue	-11.8117
localAddress	-11.8126
AsInt	-11.8129
DocumentElement	-11.8132
ForeignKey	-11.8133
Inverse	-11.8134
▁looking	-11.8136
_2_	-11.8141
addItem	-11.8145
InfoInner	-11.8146
LOCALE	-11.8149
ZooKeeper	-11.8149
ard	-11.815
solr	-11.8151
Included	-11.8151
getGlobal	-11.8152
precondition	-11.8152
KV	-11.8162
▁overlap	-11.8164
setBackground	-11.8166
nav	-11.8167
▁Kernel	-11.8167
pred	-11.8169
TypeSignature	-11.8171
theme	-11.8177
projectFile	-11.8179
Expire	-11.8182
▁transformed	-11.8188
hasOption	-11.819
newHashMap	-11.819
▁epoch	-11.8198
▁partitionId	-11.8199
setScale	-11.8205
▁relations	-11.8209
Effective	-11.8211
ommerceCountryId	-11.8212
▁successful	-11.8214
InMemory	-11.8217
▁prefs	-11.822
adapt	-11.8227
currency	-11.8229
VFS	-11.8232
▁adjustment	-11.8233
embedded	-11.8235
▁classname	-11.8235
cross	-11.8237
disconnect	-11.8238
proto	-11.8239
problem	-11.8239
half	-11.8239
▁expiration	-11.824
possible	-11.824
Trying	-11.8245
OutputHandler	-11.8246
Statuses	-11.8248
▁organization	-11.8249
▁cells	-11.825
ioe	-11.8251
▁signed	-11.8253
collector	-11.8256
AES	-11.8258
1000	-11.8258
isVisible	-11.827
999	-11.8272
PU	-11.8277
addError	-11.828
cli	-11.8281
Pad	-11.8282
crc	-11.8285
httpClient	-11.8286
paint	-11.8298
unset	-11.8301
▁subset	-11.8305
Mat	-11.8307
▁3]	-11.8307
stants	-11.8307
JSONException	-11.8315
HeadName	-11.8315
Fax	-11.8316
CmsProperty	-11.8316
NDArray	-11.8317
Mtas	-11.8317
RNA	-11.8318
sanitize	-11.8318
protect	-11.8318
Consonant	-11.8319
ー	-11.8319
数据	-11.8319
TRANSLATION	-11.8319
を	-11.8319
toggle	-11.8319
Activate	-11.8319
Centroid	-11.8319
Latitude	-11.8319
Population	-11.8319
frequency	-11.8319
relevant	-11.8319
▁stuff	-11.8319
Deletion	-11.8319
introspect	-11.8319
NOTIFICATION	-11.8319
REGISTER	-11.8319
Detach	-11.8319
business	-11.8319
findViewById	-11.8319
residue	-11.8319
OJB	-11.8319
SPECIFICATION	-11.8319
▁chrono	-11.8319
Guild	-11.8319
!!!	-11.8319
LinearRing	-11.8319
claim	-11.8319
Interconnect	-11.8319
THAN	-11.832
▁SSLContext	-11.832
▁facet	-11.832
▁anyway	-11.8321
getInitParameter	-11.8321
▁XMPP	-11.8321
▁extent	-11.8322
Normalizer	-11.8323
Assignable	-11.8324
SipSession	-11.8325
inherited	-11.8327
stroke	-11.8328
Derived	-11.8329
STARTED	-11.8329
getPrimaryKey	-11.8332
TZ	-11.8333
ASN	-11.8333
▁QueryPos	-11.8334
OpenMode	-11.8335
putResult	-11.8336
BITS	-11.8339
Fetcher	-11.8341
▁digester	-11.8344
▁adjusted	-11.8344
timeStamp	-11.8346
▁128	-11.8346
persistent	-11.8348
▁rdf	-11.8352
▁"?"	-11.8352
faxJob	-11.8361
JA	-11.8362
ATTRIBUTES	-11.8365
▁blockLength	-11.8371
getLastModified	-11.8374
getEncoded	-11.8377
JMX	-11.8377
▁Maven	-11.8379
Actual	-11.838
▁parms	-11.838
▁deserializer	-11.8393
▁overridden	-11.8397
Seg	-11.8401
LocalDate	-11.8417
setProject	-11.8421
mse	-11.8426
DataFormat	-11.8429
▁alternate	-11.8431
SIG	-11.8432
EnumEEnum	-11.8432
getCustom	-11.8436
getLineNumber	-11.8436
rectF	-11.8444
decrement	-11.8444
pref	-11.8448
▁xctxt	-11.8451
▁dirty	-11.8453
▁restriction	-11.8456
▁ordering	-11.8458
InstanceInfo	-11.8458
▁startOffset	-11.8459
▁operand	-11.846
Compute	-11.846
NewLine	-11.8461
Maven	-11.8465
Assembly	-11.8465
vaultBaseUrl	-11.8465
parallel	-11.8465
broker	-11.8466
ThreadLocal	-11.8466
transfer	-11.8467
minimum	-11.8467
fraction	-11.8467
keep	-11.8468
basic	-11.8469
tokenizer	-11.8469
LocalVariable	-11.8471
CAT	-11.8472
tool	-11.8475
Mixin	-11.848
ClientConfig	-11.8483
getPortlet	-11.8483
▁rawType	-11.8484
getNative	-11.8485
CommerceAddress	-11.8485
SEG	-11.8492
▁offline	-11.8495
geo	-11.8496
statusCode	-11.8497
CORE	-11.8504
▁deal	-11.8505
LoggerFactory	-11.8506
packages	-11.8507
coordinates	-11.851
setSource	-11.8517
dense	-11.8518
minutes	-11.8525
OpCode	-11.8538
got	-11.8538
FAIL	-11.854
Acquire	-11.8541
BRACKET	-11.8541
Guacamole	-11.8541
Handling	-11.8541
deprecated	-11.8541
scenario	-11.8541
Knowledge	-11.8541
Repositories	-11.8541
SIBUuid	-11.8541
▁networkPipes	-11.8541
Mention	-11.8541
Drag	-11.8541
TRANSPORT	-11.8541
Lost	-11.8541
▁DecimalFormat	-11.8541
zrk	-11.8541
▁'\"'	-11.8541
SSLSocketFactory	-11.8541
eadUnsignedShort	-11.8541
ascii	-11.8541
JsHdr	-11.8542
Trail	-11.8543
Budget	-11.8543
▁explicitly	-11.8544
MENU	-11.8544
paragraph	-11.8547
Dict	-11.8548
MachineScaleSet	-11.8551
▁asyncHandler	-11.8551
IdGenerator	-11.8552
Unix	-11.8554
▁sdf	-11.8556
▁serialization	-11.8557
▁analyzer	-11.8558
ListResultInner	-11.8558
HANDLER	-11.856
▁gold	-11.8564
Invoice	-11.8568
WeekDay	-11.8568
edges	-11.8569
reachable	-11.857
XMLReader	-11.8571
getFieldName	-11.8571
▁JComponent	-11.8573
crop	-11.8574
blocking	-11.8574
▁ConcurrentHash	-11.8576
DONE	-11.8579
Minus	-11.8583
DataTable	-11.8588
UniqueId	-11.8591
permissions	-11.8593
▁grow	-11.86
Gui	-11.8601
lineno	-11.8601
TMP	-11.8602
oldValue	-11.8605
isLeaf	-11.8606
DocumentBuilder	-11.8609
▁propertyKey	-11.8617
AttributeNames	-11.862
▁journal	-11.8621
▁minValue	-11.8625
derivY	-11.8626
Datatype	-11.8626
OU	-11.8637
tyleable	-11.8638
▁plot	-11.8642
WRAP	-11.8642
▁certs	-11.8643
Polling	-11.8649
▁bDisplayOption	-11.8649
getAccess	-11.8651
▁cacheResult	-11.8654
▁become	-11.8657
prov	-11.8657
fireEvent	-11.8657
▁cred	-11.8661
▁computed	-11.8663
getFS	-11.8664
GT	-11.8666
Rendering	-11.8666
numOf	-11.8666
▁unwrap	-11.8668
▁general	-11.867
▁-->	-11.8671
Signer	-11.8671
▁alternative	-11.8676
SAX	-11.8677
getSubject	-11.8678
Includes	-11.8679
prepend	-11.8682
▁radix	-11.8684
isOpen	-11.8685
DefaultInstance	-11.8686
Generate	-11.8686
polygon	-11.8691
ResponseHandler	-11.8694
Kernel	-11.8698
implement	-11.8699
EXTRA	-11.87
must	-11.87
▁classNameId	-11.8701
zoom	-11.8701
payment	-11.8703
▁writeTo	-11.8703
onComplete	-11.8713
erAccess	-11.8713
endOf	-11.8714
idle	-11.8719
roduced	-11.872
▁abstract	-11.8722
oauth	-11.8723
PD	-11.8728
perPage	-11.8729
SearchResults	-11.8732
del	-11.8733
RequestParam	-11.8735
BitSet	-11.8735
▁dto	-11.8741
Handled	-11.8743
days	-11.8744
Workplace	-11.8746
ErrorResponse	-11.875
DisplayName	-11.8752
Slide	-11.8755
annotate	-11.8755
Compress	-11.8756
▁dateFormat	-11.8758
▁focus	-11.8761
TypeLiteral	-11.8762
tan	-11.8766
logback	-11.8767
▁ULocale	-11.8767
tionAccountName	-11.8768
个	-11.8768
Appearance	-11.8768
BUTTON	-11.8768
CREDENTIAL	-11.8768
Evidence	-11.8768
Explanation	-11.8768
fingerprint	-11.8768
policies	-11.8768
▁alteredNode	-11.8768
ALIAS	-11.8768
BOTTOM	-11.8768
PRIMARY	-11.8768
Traffic	-11.8768
migration	-11.8768
▁milliseconds	-11.8768
Audience	-11.8768
DYNAMIC	-11.8768
SQUARE	-11.8768
pseudo	-11.8768
▁SshException	-11.8768
▁sibling	-11.8768
termination	-11.8768
pretty	-11.8768
CELL	-11.8768
getQPath	-11.8769
isErrorEnabled	-11.8769
article	-11.8769
newHashSet	-11.8769
BIGINT	-11.8769
HELP	-11.8769
PLAIN	-11.8769
▁observer	-11.877
Colour	-11.877
Most	-11.8771
supports	-11.8771
▁GeoPackage	-11.8771
SETTINGS	-11.8773
▁prep	-11.8775
Prepared	-11.8777
etrieveFromCache	-11.8778
▁smaller	-11.8779
commons	-11.8779
TimeSeries	-11.878
CDI	-11.8781
Way	-11.8787
Expanded	-11.8787
absent	-11.8789
CharAt	-11.8794
getResourceId	-11.8795
Cred	-11.8799
setStyle	-11.88
getPrimary	-11.88
collDef	-11.8804
▁immediately	-11.8808
resize	-11.8809
SUM	-11.881
TaskAttempt	-11.881
jpa	-11.8814
notEmpty	-11.8816
▁reporter	-11.8825
SocketAddress	-11.8826
SECTION	-11.8828
Relational	-11.883
ToWrite	-11.8831
finer	-11.8831
▁mismatch	-11.8835
xpath	-11.8837
uninstall	-11.8839
DateRange	-11.8842
beanName	-11.8846
AsList	-11.8847
Salt	-11.8851
MC	-11.8857
▁jsonConfig	-11.8857
Guid	-11.8858
OutputFormat	-11.8862
spanStart	-11.8863
setFill	-11.8865
getFull	-11.8867
2_0	-11.8878
▁decompress	-11.8878
ful	-11.888
removeChild	-11.8883
▁replaced	-11.8883
CodeSource	-11.8884
▁though	-11.8886
getArguments	-11.8886
ServletConfig	-11.8887
logError	-11.8888
Require	-11.8894
getGroupId	-11.8896
getErrorCode	-11.8899
Waiting	-11.891
TokenType	-11.8918
================	-11.8918
hit	-11.892
pushObject	-11.8921
define	-11.8928
LeafNode	-11.893
getSingle	-11.8934
ommerceOrderItem	-11.8934
sentence	-11.8934
serial	-11.8935
▁neighbour	-11.8936
Should	-11.8936
anchor	-11.8937
▁fout	-11.8939
JobHandler	-11.8939
rhs	-11.8941
jedis	-11.8942
checksum	-11.8944
▁rsp	-11.8944
addOption	-11.8945
▁enumConstant	-11.8946
▁Prc	-11.8951
OutputPath	-11.8952
Concurrent	-11.8952
isPublic	-11.8955
intern	-11.8955
▁ListOperation	-11.8958
ItemData	-11.8958
LineNumber	-11.896
tracker	-11.8967
ByKey	-11.8968
href	-11.897
formatMessage	-11.8972
toBytes	-11.8975
Serialize	-11.8976
wm	-11.8978
permit	-11.8978
Company	-11.8982
▁rowKey	-11.8984
▁hostName	-11.8988
Analyze	-11.8992
Controllable	-11.8999
AREA	-11.9
出	-11.9001
asJena	-11.9001
RecyclerView	-11.9001
Residue	-11.9001
phrase	-11.9001
é	-11.9001
DISTRIBUTION	-11.9001
INTERFACE	-11.9001
Intensity	-11.9001
Occurrence	-11.9001
Recipient	-11.9001
Surrogate	-11.9001
DEFINITION	-11.9001
QUEUE	-11.9001
RANGE	-11.9001
prompt	-11.9001
▁bldr	-11.9001
处理	-11.9001
OWLAxiom	-11.9001
Allocation	-11.9001
parameterToPair	-11.9001
('.',	-11.9001
Highlight	-11.9001
Emitter	-11.9001
nanos	-11.9001
ClientRequestId	-11.9002
▁'*'	-11.9002
money	-11.9002
▁aux	-11.9002
Deriv	-11.9002
▁usual	-11.9004
getPublic	-11.9004
more	-11.9005
PhysicalEntity	-11.9005
Nonce	-11.9005
Protected	-11.9005
▁htmltree	-11.9006
tbn	-11.9007
ServiceFuture	-11.9007
Serv	-11.9007
Training	-11.9008
UnknownHost	-11.9008
completed	-11.901
enforce	-11.9011
▁'+'	-11.9011
▁miss	-11.9011
itr	-11.9011
▁varName	-11.9012
Insertion	-11.9014
putLong	-11.9014
evaluator	-11.9016
OPT	-11.902
Dead	-11.9021
▁nice	-11.9022
Oid	-11.9022
unmodifiableMap	-11.9023
KNN	-11.9024
Aggregated	-11.9027
addCode	-11.9031
isNew	-11.9033
ImageBorder	-11.9033
RDD	-11.9033
getRows	-11.9038
REL	-11.9045
▁"1"	-11.9046
setLocation	-11.9047
▁URLConnection	-11.9048
PartitionId	-11.9048
▁kv	-11.9049
SAXParser	-11.9051
tsdb	-11.9052
ProfileRequest	-11.9056
SocketFactory	-11.9058
▁entityCache	-11.9059
startDate	-11.9061
unpack	-11.9061
listen	-11.9062
separatorChar	-11.9067
setFont	-11.9072
getBinary	-11.9076
cnt	-11.9079
RouteRequest	-11.9084
bins	-11.9085
BatchStatus	-11.9086
EndTag	-11.9086
reserved	-11.9087
▁boundingBox	-11.9092
AdGroup	-11.9095
▁aggregation	-11.9099
weak	-11.91
TaskListener	-11.9105
MetaClass	-11.9105
▁declare	-11.9116
ipAddress	-11.9116
DNS	-11.9116
listIterator	-11.9121
getPref	-11.9124
declaration	-11.9125
currencyPair	-11.9126
StatusLine	-11.9128
codec	-11.913
TypeDeclaration	-11.9131
▁directories	-11.9143
▁findByUuid	-11.9145
URLEncoder	-11.9151
QueryResponse	-11.9153
Iso	-11.9154
Initialize	-11.9155
512	-11.9158
getProfile	-11.9163
SimpleAntlr	-11.9165
▁toReturn	-11.9166
isNotNull	-11.917
ConfigProperty	-11.9177
aggregate	-11.918
secure	-11.9181
memory	-11.9182
comparator	-11.9182
dependent	-11.9182
beta	-11.9187
TTL	-11.9188
HI	-11.919
strHTML	-11.919
Foreign	-11.9198
isDone	-11.92
PropertyData	-11.9202
WildcardType	-11.9207
Stroke	-11.9212
stackSize	-11.9221
clock	-11.9222
Exclusion	-11.9233
RPT	-11.9234
ALLOW	-11.9238
corpora	-11.9239
Axiom	-11.9239
VARIABLE	-11.9239
▁blackHole	-11.9239
Equivalent	-11.9239
Introspector	-11.9239
Liberty	-11.9239
NodeAgentSku	-11.9239
THRESHOLD	-11.9239
Distributed	-11.9239
Exponent	-11.9239
Fluent	-11.9239
ROUND	-11.9239
ncluding	-11.9239
▁according	-11.9239
▁cellSizeInDp	-11.9239
BATCH	-11.9239
Embeddable	-11.9239
audience	-11.9239
determinant	-11.9239
octet	-11.9239
Parallelism	-11.9239
Caching	-11.9239
variance	-11.9239
▁moment	-11.9239
Nearest	-11.9239
FNC	-11.9239
UDP	-11.9239
checkRequiredTag	-11.9239
Hot	-11.9239
▁pRequestData	-11.924
ACCOUNT	-11.924
JobInfo	-11.924
Instantiat	-11.924
messagingEngine	-11.924
Mesh	-11.924
ResourceManager	-11.924
Cron	-11.924
RelativeLayout	-11.9241
Interest	-11.9242
▁styleClass	-11.9242
ImportExport	-11.9243
txn	-11.9243
isInfinite	-11.9244
primaryKey	-11.9244
MUL	-11.9244
Skipping	-11.9245
DomainName	-11.9248
SCHEME	-11.9249
HashSet	-11.925
oad	-11.9251
DroppedException	-11.9252
Slider	-11.9253
talResultSetSize	-11.9253
BlockingQueue	-11.9253
MouseEvent	-11.9254
OrEmpty	-11.9255
ImmutableTerm	-11.9255
EQUALS	-11.9256
▁EnumSet	-11.9256
▁pathSegments	-11.9258
▁'='	-11.9259
▁DoubleMatrix	-11.926
SiteInner	-11.926
Unlock	-11.926
▁DataInputStream	-11.926
CommerceRegion	-11.9261
Emit	-11.9263
Review	-11.9268
▁Datanode	-11.9268
pageContext	-11.9269
Lite	-11.9269
StartTag	-11.9272
▁lc	-11.9275
ResourceMetric	-11.9279
BR	-11.928
Lab	-11.928
inline	-11.9285
maxAge	-11.929
{}",	-11.929
▁mass	-11.9291
Rep	-11.9297
fk	-11.9302
Degrees	-11.9307
ProviderInfo	-11.9311
snap	-11.9316
LeftChild	-11.9317
▁InvalidKey	-11.9319
PGP	-11.932
RuleInner	-11.9323
▁elapsed	-11.9325
▁formula	-11.9325
javascript	-11.9326
setAt	-11.9329
Maintenance	-11.933
Rename	-11.9336
▁retriev	-11.9339
▁linked	-11.9346
ColumnFamily	-11.9347
▁sel	-11.9355
tempDir	-11.9357
Skill	-11.936
THIN	-11.9361
264	-11.9388
keyPerson	-11.939
DIV	-11.9392
ENABLE	-11.9399
CacheManager	-11.9403
getFileName	-11.9403
MG	-11.941
Installed	-11.9412
CmsCategory	-11.9414
needs	-11.9414
watch	-11.9416
detect	-11.9416
2.0	-11.9416
getContentType	-11.9422
present	-11.9422
ually	-11.9427
background	-11.943
world	-11.9432
which	-11.9432
▁checkpoint	-11.9433
Combine	-11.9436
analyze	-11.9437
UIComponent	-11.9441
▁NodeUtil	-11.9441
endTime	-11.9445
HttpMessage	-11.9447
binder	-11.9451
▁SIMP	-11.9454
▁userInfo	-11.9457
NET	-11.9459
EndpointsRequest	-11.9463
Keyspace	-11.9472
////////////////	-11.9475
similar	-11.9476
getHostName	-11.9476
Consume	-11.9481
Instrument	-11.9481
Confirm	-11.9481
exclusion	-11.9481
Bitcoin	-11.9483
入	-11.9483
DESCRIPTOR	-11.9483
websphere	-11.9483
LAYOUT	-11.9483
Stanza	-11.9483
experiment	-11.9483
Decision	-11.9483
MESSAGING	-11.9483
monomer	-11.9483
CommerceShipping	-11.9483
UNDEFINED	-11.9483
reactant	-11.9483
▁copied	-11.9483
Delegation	-11.9483
OTHER	-11.9483
RETRY	-11.9483
STANDARD	-11.9483
pReqVars	-11.9483
值	-11.9483
isAlive	-11.9483
('0'	-11.9483
POD	-11.9483
SCROLL	-11.9483
hull	-11.9483
StudyMetadata	-11.9483
STEP	-11.9483
▁VoltType	-11.9484
▁caught	-11.9485
Webhook	-11.9485
▁classification	-11.9487
surface	-11.9487
ToBytes	-11.9488
visited	-11.9489
SAML	-11.949
jwt	-11.949
▁expires	-11.949
CRLF	-11.9491
▁turn	-11.9492
CPRule	-11.9495
CPAtt	-11.9497
Finally	-11.9498
jndiName	-11.9498
Deployed	-11.9498
MultiValue	-11.9499
organizationName	-11.9504
Squared	-11.9504
StepExecution	-11.9506
▁ViewGroup	-11.9506
▁timeInterval	-11.9507
▁timeUnit	-11.9511
Savings	-11.9514
Cart	-11.9514
▁sslContext	-11.9514
rethrow	-11.9516
getFullName	-11.9517
UpdateObject	-11.9524
Forest	-11.9525
▁ste	-11.953
fromBytes	-11.9532
hdfs	-11.9539
gzip	-11.9546
parseFloat	-11.955
JsonParser	-11.9551
Monitored	-11.9554
StackSize	-11.9554
▁pagination	-11.9555
▁doGet	-11.9556
PRINT	-11.9564
getTimeZone	-11.9568
▁fetchByC	-11.9589
ChronoField	-11.9593
ImageView	-11.9594
isFull	-11.9595
RootPath	-11.9603
checked	-11.9612
remoteAddress	-11.9612
endElement	-11.9615
ValidationResult	-11.9625
fast	-11.9628
amo	-11.9628
calc	-11.9631
serializer	-11.9639
(10,	-11.9656
▁shortName	-11.9658
parameterName	-11.9658
83	-11.9663
relationshipType	-11.9672
neighbor	-11.968
upgrade	-11.9687
placeholder	-11.9687
registration	-11.9687
sigma	-11.9687
standard	-11.9688
BufferedImage	-11.9688
bug	-11.9689
padding	-11.9689
popup	-11.969
signal	-11.9698
UserGroup	-11.9699
Mult	-11.97
Smi	-11.9706
coll	-11.9707
numerator	-11.9709
disabled	-11.9711
Deserialization	-11.9721
configured	-11.9723
RootDir	-11.9724
Else	-11.9727
Black	-11.9731
InMs	-11.9731
Overlap	-11.9732
加	-11.9733
CHARACTER	-11.9733
PIXEL	-11.9733
dedicated	-11.9733
DIGIT	-11.9733
diagnostic	-11.9733
COOKIE	-11.9733
Collapse	-11.9733
Molecule	-11.9733
Trivial	-11.9733
▁slave	-11.9733
ABSTRACT	-11.9733
Spacing	-11.9733
compilation	-11.9733
discriminator	-11.9733
mechanism	-11.9733
spatial	-11.9733
translator	-11.9733
▁improve	-11.9733
▁recurse	-11.9733
本	-11.9733
Denominator	-11.9733
capitalize	-11.9733
migrate	-11.9733
satisfied	-11.9733
に	-11.9733
▁Quad	-11.9733
▁macro	-11.9733
InternalEObject	-11.9733
spliterator	-11.9733
deferred	-11.9733
glyph	-11.9733
BLACK	-11.9733
Unmarshaller	-11.9733
▁MDC	-11.9733
Netty	-11.9733
COLON	-11.9733
▁power	-11.9733
Compose	-11.9734
AutoScaling	-11.9734
Recent	-11.9734
METADATA	-11.9734
MARKER	-11.9734
kit	-11.9735
▁rtn	-11.9735
▁allocation	-11.9735
▁gather	-11.9737
COUNTER	-11.9738
▁OvhOrder	-11.974
PAY	-11.974
Subsystem	-11.974
getResourceUrl	-11.9741
▁executed	-11.9741
▁likely	-11.9741
DimFilter	-11.9741
Undefined	-11.9742
▁hack	-11.9744
invalidate	-11.9744
FIX	-11.9745
workplace	-11.9746
Symbolic	-11.9746
Cleaner	-11.9748
YES	-11.9749
InSeconds	-11.9755
▁ColumnInfo	-11.9762
contract	-11.9768
▁std	-11.9769
▁argTypes	-11.977
setMin	-11.9772
alive	-11.9773
appfw	-11.978
HashCode	-11.978
getFilename	-11.9782
[]{"	-11.9784
webapp	-11.9784
ProgressListener	-11.9785
▁uv	-11.9788
▁StreamResult	-11.9789
ResponseWriter	-11.9793
("*")	-11.9795
ReferenceCode	-11.9808
issues	-11.981
charCount	-11.9826
MultiPoint	-11.9828
deriv	-11.9829
Requires	-11.9834
▁(;;)	-11.9842
()>0)	-11.9842
Reducer	-11.9842
PrimitiveType	-11.9843
credential	-11.9859
PaddingException	-11.9862
StrUtil	-11.9866
TextNode	-11.9866
sock	-11.9871
InstancesRequest	-11.9873
CAP	-11.9875
poolId	-11.9882
publicKey	-11.9886
DateTimeZone	-11.9889
getUuid	-11.9895
93	-11.99
▁reuse	-11.9902
monitoring	-11.9904
fromIndex	-11.9905
exchangeService	-11.9915
ICON	-11.9936
WorkplaceManager	-11.9941
assigned	-11.9943
UserID	-11.9946
routing	-11.995
Unchecked	-11.9951
ldap	-11.9952
timezone	-11.9953
either	-11.9953
NullPointer	-11.9955
machine	-11.9955
deep	-11.9957
ByteBuf	-11.9957
ARC	-11.9959
receiver	-11.9963
RuleSet	-11.9966
issuer	-11.9966
BeanO	-11.9967
▁classDef	-11.9973
▁recognize	-11.9986
Thumbnail	-11.9988
Convention	-11.9989
Guaranteed	-11.9989
Foreground	-11.9989
REDUCE	-11.9989
DIGEST	-11.9989
OVERRIDE	-11.9989
PARTITION	-11.9989
PLUS	-11.9989
quiet	-11.9989
Jetty	-11.9989
Lease	-11.9989
Retain	-11.9989
Snippet	-11.9989
sensitive	-11.9989
▁executing	-11.9989
Density	-11.9989
MISSING	-11.9989
proposal	-11.9989
▁kunderaMetadata	-11.9989
CURLY	-11.9989
Robot	-11.9989
TOPOLOGY	-11.9989
Wake	-11.9989
coverage	-11.9989
▁SecureRandom	-11.9989
CPOptionCategory	-11.9989
一个	-11.9989
bdalib	-11.9989
isolation	-11.999
lexerEngine	-11.999
▁'{'	-11.999
▁AstNode	-11.999
Feedback	-11.999
IoSession	-11.999
quad	-11.999
▁smallest	-11.999
▁ScriptRuntime	-11.999
Sku	-11.999
PendingIntent	-11.9991
DISABLED	-11.9991
Incorrect	-11.9992
▁dayOfMonth	-11.9992
Extraction	-11.9993
PlayerSession	-11.9994
Doclet	-11.9995
▁But	-11.9995
▁HttpPost	-11.9996
attributeValue	-11.9999
suspended	-12.0004
PMeasurementUnit	-12.0004
doFinal	-12.0005
UAL	-12.0005
ommerceOrderNote	-12.0006
CRI	-12.0007
▁beginUpdate	-12.0007
ByteChannel	-12.0013
XmlGenerator	-12.0015
ThreadGroup	-12.0018
Logic	-12.0018
▁qName	-12.0026
CPD	-12.0028
CellStyle	-12.0029
TaskTracker	-12.003
Jpa	-12.003
setFeature	-12.0031
ServiceCall	-12.0033
Trade	-12.0036
▁who	-12.0036
firstChild	-12.0037
-----	-12.0038
beanId	-12.0041
ZK	-12.0043
CallExpression	-12.0049
▁formData	-12.005
currentChar	-12.0051
bmd	-12.0061
indexes	-12.0063
xFFFF	-12.0069
Escaped	-12.0071
▁{0}"	-12.0074
getIts	-12.0077
▁headerValue	-12.0088
canRead	-12.0088
localhost	-12.0089
Finding	-12.0091
ClasspathElement	-12.0098
getHostAddress	-12.0099
priv	-12.0106
prog	-12.0111
Formatted	-12.0117
GroupMembers	-12.0117
xmlns	-12.012
tempFile	-12.0126
Versioned	-12.0132
▁appl	-12.0133
escaped	-12.0135
getColumnName	-12.0136
Expires	-12.0137
tachedKeyPersons	-12.0156
UID	-12.0156
pom	-12.0164
QueueEntry	-12.0164
Mirror	-12.0169
These	-12.017
Claim	-12.0173
▁collectionName	-12.0187
▁Reflect	-12.019
setContentType	-12.0192
VariableName	-12.0194
void	-12.0195
▁projectName	-12.021
Hierarchical	-12.022
supplier	-12.022
unicode	-12.022
wave	-12.022
managed	-12.0221
difference	-12.0221
dependencies	-12.0221
createOrUpdate	-12.0222
when	-12.0222
▁Gitlab	-12.0223
TLS	-12.0224
evt	-12.0225
drawer	-12.0246
setAuto	-12.0249
bracket	-12.025
ayOfMonth	-12.025
spring	-12.0251
beanClass	-12.0252
Elastic	-12.0252
词	-12.0252
则	-12.0252
する	-12.0252
Alphabet	-12.0252
LessThan	-12.0252
STORAGE	-12.0252
participant	-12.0252
Communication	-12.0252
Dense	-12.0252
Hibernate	-12.0252
Inference	-12.0252
MAGIC	-12.0252
OperatingSystem	-12.0252
Vulnerability	-12.0252
Writing	-12.0252
anonymous	-12.0252
BUCKET	-12.0252
Corpus	-12.0252
Lexical	-12.0252
方法	-12.0252
类型	-12.0252
Reached	-12.0252
Yaml	-12.0252
federated	-12.0252
▁FIXME	-12.0252
ALPHA	-12.0252
PUBLISH	-12.0252
WRONG	-12.0252
jaxb	-12.0252
CONSTANT	-12.0252
TRIPLETS	-12.0252
Protection	-12.0252
EXIT	-12.0252
Crud	-12.0252
▁AtomicInteger	-12.0252
SasDefinition	-12.0253
bank	-12.0253
Conjunction	-12.0253
volt	-12.0253
elastic	-12.0253
IoBuffer	-12.0254
Svc	-12.0256
Miss	-12.0257
PolymerNotation	-12.0257
▁MutableBoolean	-12.0258
ListAccountRel	-12.0258
▁unless	-12.0258
CONF	-12.0261
feedback	-12.0261
Warp	-12.0263
getMinimum	-12.0265
transient	-12.0266
unmodifiableSet	-12.0266
Combined	-12.0267
▁displayDate	-12.0269
READY	-12.0271
SQLite	-12.0275
▁detected	-12.0275
▁expanded	-12.0275
NotAvailable	-12.0275
▁higher	-12.0279
SITE	-12.028
▁inbound	-12.0281
chron	-12.0286
HINT	-12.0287
deflate	-12.0288
Gate	-12.0288
OnClickListener	-12.0288
ChunkSize	-12.029
Bounded	-12.0292
▁srv	-12.0293
Daemon	-12.0293
Released	-12.0293
_2=	-12.0296
ForNull	-12.0297
▁salt	-12.0299
onNext	-12.0301
getPolymer	-12.0303
RootCause	-12.0314
StorePackage	-12.0316
GROUPS	-12.0317
Documentation	-12.0317
FileFilter	-12.0325
countDown	-12.0334
recent	-12.0347
▁sur	-12.0348
BytesRead	-12.0352
getContextPath	-12.0354
▁paramName	-12.0356
charge	-12.0357
Converted	-12.0362
▁injection	-12.0372
getYear	-12.0372
800	-12.0375
ITE	-12.0378
Proxies	-12.038
scheduled	-12.0387
getDefaultValue	-12.0392
setBorder	-12.0411
("\\."	-12.0415
Reconnect	-12.0419
ItemCount	-12.0422
PDB	-12.0423
▁appendTo	-12.0426
arity	-12.043
semantic	-12.043
Recording	-12.044
WriteLock	-12.0442
getPrecision	-12.0445
serialized	-12.0448
cron	-12.0452
IES	-12.0455
ShortName	-12.0461
propertyValue	-12.0461
statistics	-12.0473
umBands	-12.0474
func	-12.0495
Rotate	-12.0495
specific	-12.0497
clause	-12.0498
choice	-12.0499
since	-12.0502
interceptor	-12.0502
serialization	-12.0502
Recover	-12.0506
joining	-12.0511
received	-12.0512
cpDefinition	-12.0514
esourceException	-12.0514
annotated	-12.0516
ICAL	-12.0516
ServiceRef	-12.0516
MIS	-12.0519
recipient	-12.052
DataInput	-12.052
getPrevious	-12.052
后	-12.0522
FRAGMENT	-12.0523
Aromatic	-12.0523
corrupt	-12.0523
getElementsByTag	-12.0523
outstanding	-12.0523
▁XtextPackage	-12.0523
Activities	-12.0523
BASIC	-12.0523
ENDIAN	-12.0523
HOME	-12.0523
Introspection	-12.0523
MASTER	-12.0523
MEMORY	-12.0523
Suspend	-12.0523
UNSIGNED	-12.0523
establish	-12.0523
kryo	-12.0523
throttle	-12.0523
yyyy	-12.0523
▁deletion	-12.0523
▁guarantee	-12.0523
Favorite	-12.0523
Invitation	-12.0523
MovieDbException	-12.0523
Synonym	-12.0523
reservoir	-12.0523
▁purpose	-12.0523
器	-12.0523
Anonymous	-12.0523
Smooth	-12.0523
Presence	-12.0523
dWordsServices	-12.0523
robot	-12.0523
Flux	-12.0523
MUST	-12.0523
Later	-12.0523
Speed	-12.0523
▁ReflectionUtils	-12.0523
Correlation	-12.0523
ASSIGN	-12.0523
CommerceShipment	-12.0523
ERA	-12.0523
aaauser	-12.0524
mmd	-12.0524
umanSubjects	-12.0524
nesting	-12.0524
logout	-12.0524
Permutation	-12.0527
▁SMB	-12.0528
▁incorrect	-12.0528
▁hints	-12.0528
OOM	-12.0529
▁Let	-12.0529
accessor	-12.0532
ControlFlow	-12.0535
east	-12.0536
▁extraction	-12.0537
highlight	-12.0538
union	-12.0538
▁HttpGet	-12.0539
scheduler	-12.0539
▁LongTuple	-12.054
inspect	-12.0542
▁CmsContainer	-12.0543
▁WComponent	-12.0544
▁HttpEntity	-12.0544
Assigned	-12.0545
vote	-12.0545
cont	-12.0554
FlowDefinition	-12.0555
getColumnIndex	-12.0556
CmsContainerPage	-12.0556
DELETED	-12.0558
webElement	-12.0559
ToByteArray	-12.0565
FeatureCall	-12.0569
Intern	-12.0569
Locking	-12.0569
Iterate	-12.0571
explorer	-12.0576
const	-12.0583
setIcon	-12.0583
Hea	-12.0584
PrefixLength	-12.0584
Calling	-12.0587
CurrentProject	-12.0587
TimeStamp	-12.0588
3_0	-12.059
derive	-12.0592
guid	-12.0592
Cont	-12.0593
▁chk	-12.0595
loss	-12.0596
Neighbors	-12.0597
Saved	-12.0599
para	-12.06
▁checkIf	-12.0601
BigQuery	-12.0602
PropertyChange	-12.0608
Viewport	-12.0612
("?")	-12.0613
CellValue	-12.0616
DOC	-12.0618
▁bundleContext	-12.0622
▁searcher	-12.0628
clz	-12.0628
▁readFrom	-12.0632
CDATA	-12.0634
responseBody	-12.0634
▁extracted	-12.0638
▁operands	-12.064
▁getCached	-12.0642
CPOptionValue	-12.0642
▁SIR	-12.0643
Heading	-12.0646
proj	-12.0647
Kit	-12.065
createWidget	-12.065
tasklet	-12.0651
▁360	-12.0651
Bool	-12.0657
ummer	-12.0657
isDigit	-12.0659
appName	-12.0663
lz	-12.0665
freq	-12.0668
removeAttribute	-12.067
getInterfaces	-12.0672
▁jms	-12.0673
LoggingEvent	-12.0675
▁sparse	-12.0676
Sampler	-12.0676
cycle	-12.0688
WaitTime	-12.0699
Periodic	-12.0699
CommerceAccount	-12.0702
setDuration	-12.0705
sys	-12.0705
}\	-12.0706
Misc	-12.0711
Bl	-12.0715
gisteredService	-12.0718
readUTF	-12.0736
ZoneOffset	-12.0739
setActive	-12.0741
Polymer	-12.0742
Exterior	-12.0745
SimpleName	-12.0746
getErrorMessage	-12.0772
authenticate	-12.0772
increase	-12.0777
operand	-12.0783
patch	-12.0783
queries	-12.0784
browser	-12.0784
ticket	-12.0784
click	-12.0784
blob	-12.0785
behavior	-12.0785
127	-12.0785
leaf	-12.0787
obtain	-12.0788
unexpected	-12.0789
large	-12.0796
vpn	-12.0797
▁atomic	-12.0797
Excluded	-12.0799
visitor	-12.0799
executable	-12.08
Affinity	-12.08
INVOKE	-12.08
Evaluate	-12.08
Experiment	-12.08
Denied	-12.08
VERTICAL	-12.08
inventory	-12.08
Album	-12.08
COMMIT	-12.08
PROGRESS	-12.08
REVERSE	-12.08
Scheduling	-12.08
misExtensionType	-12.08
Article	-12.08
Coordinator	-12.08
Eviction	-12.08
Octet	-12.08
QueryNotices	-12.08
denominator	-12.08
polyline	-12.08
yield	-12.08
AUTHENTICATION	-12.08
SLASH	-12.08
Mount	-12.08
Movie	-12.08
▁ledger	-12.08
AVIM	-12.08
ifModifiedSince	-12.08
▁Jdk	-12.08
▁much	-12.08
Board	-12.08
▁mouse	-12.0801
EXPIRE	-12.0801
CmsPermissionSet	-12.0801
nvoking	-12.0801
getStructureId	-12.0801
mongo	-12.0801
%1$	-12.0801
JavaFileObject	-12.0801
sizeInBytes	-12.0801
▁cnx	-12.0802
LOWER	-12.0802
Outgoing	-12.0802
outcome	-12.0802
CoreSPI	-12.0803
▁agg	-12.0803
▁largest	-12.0803
itsId	-12.0804
SCAN	-12.0804
docker	-12.0807
cfg	-12.0807
servletContext	-12.0808
Provided	-12.081
JCTree	-12.081
DDF	-12.0813
Compressed	-12.0813
getPageSize	-12.0814
bill	-12.0815
ntk	-12.0815
SelectEClass	-12.0816
▁basicSet	-12.0817
datastore	-12.0819
Equality	-12.0819
Warn	-12.0819
▁parentScreen	-12.082
neededFields	-12.0824
▁EChange	-12.0826
▁extractor	-12.0826
Spark	-12.0828
▁Inter	-12.0829
KeyGenerator	-12.083
setStroke	-12.0832
Inode	-12.0832
[8]	-12.0833
authorize	-12.0834
Synchronized	-12.0834
Quoted	-12.0834
128	-12.0834
▁assertion	-12.0838
TimeOfDay	-12.0838
udf	-12.084
producer	-12.084
onClose	-12.0841
serverConfig	-12.0853
setUse	-12.0854
saved	-12.0854
▁forced	-12.0859
ValuesHolder	-12.0862
nio	-12.0869
writeLine	-12.0873
TaskState	-12.0875
▁cri	-12.0876
▁slow	-12.0878
urlEncode	-12.0879
curve	-12.0879
▁48	-12.0884
')||(	-12.0889
Age	-12.0889
bad	-12.0891
RelationshipType	-12.0892
Validating	-12.0896
DBCluster	-12.0897
readerIndex	-12.0898
ClassDefinition	-12.09
125	-12.0906
PREF	-12.092
Circuit	-12.0921
errorMsg	-12.0923
SEQ	-12.0926
▁come	-12.0932
FILES	-12.0935
▁sourceMethod	-12.0938
scanResult	-12.0941
PropertiesInner	-12.0942
isRunning	-12.0962
ratio	-12.0966
JobBuilder	-12.097
Leader	-12.098
FactoryBean	-12.0982
CMA	-12.0983
ContentHandler	-12.0988
▁providerInfo	-12.1
UniqueID	-12.1015
excluded	-12.1019
REPLACE	-12.1022
HH	-12.1028
Associate	-12.1033
modifier	-12.1035
fade	-12.1041
CreateObject	-12.1056
oAuth	-12.1064
▁addition	-12.1064
synchronous	-12.1068
AGE	-12.107
▁JBBP	-12.1073
inherit	-12.1074
known	-12.1075
relationship	-12.1076
holder	-12.1078
readAll	-12.1078
Own	-12.1078
runner	-12.1078
runnable	-12.1078
Interleaved	-12.108
decimal	-12.1081
goog	-12.1085
Configurable	-12.1086
201808.	-12.1086
Mechanism	-12.1086
SPECIAL	-12.1086
查	-12.1086
reservation	-12.1086
名	-12.1086
Backpressure	-12.1086
PLUGIN	-12.1086
▁labAccountName	-12.1086
▁vmScaleSetName	-12.1086
过	-12.1086
COLLECTION	-12.1086
EXPIRATION	-12.1086
HIGH	-12.1086
XmlPullParser	-12.1086
hydro	-12.1086
prolepticYear	-12.1086
study	-12.1086
▁CountDownLatch	-12.1086
▁affect	-12.1086
bAddQuotes	-12.1086
号	-12.1086
CmsVaadin	-12.1086
severity	-12.1086
stereo	-12.1086
Tomcat	-12.1086
▁applied	-12.1086
Given	-12.1086
Avro	-12.1086
存在	-12.1086
micro	-12.1086
CONCURRENT	-12.1086
Verifier	-12.1087
('>'	-12.1087
FixedOptionRel	-12.1087
setConstraintMax	-12.1087
▁terminated	-12.1087
Nonnegative	-12.1087
Blur	-12.1087
instrumentation	-12.1087
▁findByGroupId	-12.1087
(';'	-12.1088
Hide	-12.1088
▁GBS	-12.1088
▁lowest	-12.1088
IsolationLevel	-12.1088
Whitelist	-12.1088
netty	-12.1088
▁representation	-12.1088
▁highest	-12.1089
▁exactly	-12.1089
SipApplication	-12.1091
hasPermission	-12.1092
TAB	-12.1094
dispatcher	-12.1095
getOptionValue	-12.1095
▁tries	-12.1095
HMAC	-12.1096
saml	-12.1096
big	-12.1097
JavaMember	-12.1097
▁Bbox	-12.1098
/2.0	-12.1098
DDL	-12.1101
jmx	-12.1101
▁neg	-12.1102
getJobID	-12.1103
decompose	-12.1104
Radi	-12.1105
but	-12.1106
[7]	-12.1107
getColumnCount	-12.1111
limitidentifier	-12.1112
▁rack	-12.1113
▁displayed	-12.1114
blockLength	-12.1115
getLocalHost	-12.1115
▁minMax	-12.1116
Streamlet	-12.1118
JsonValue	-12.1119
INDENT	-12.1119
blocked	-12.1124
AsDouble	-12.1127
ERC	-12.1129
RESOURCES	-12.1129
▁CmsLock	-12.1131
SCORE	-12.1138
cst	-12.1138
Maker	-12.1143
pooled	-12.1143
▁heading	-12.1144
ExternalContext	-12.1145
CPU	-12.1146
appflow	-12.1147
404	-12.1147
toExternal	-12.1149
GatewayName	-12.1152
JobConf	-12.1157
setConstraint	-12.1161
ServletPath	-12.1165
codepoint	-12.1186
NoResponse	-12.1188
writeShort	-12.1189
Fold	-12.1191
▁startPos	-12.1195
UINT	-12.1198
QueryParameters	-12.12
Joinable	-12.1201
dateStr	-12.1202
Compliance	-12.1205
srcFile	-12.121
XPATH	-12.1214
rawType	-12.1222
CmsHistory	-12.1228
RecoveryPoint	-12.1229
Tld	-12.1233
ItsId	-12.1233
SortOrder	-12.1234
getBool	-12.1237
ToCheck	-12.124
decl	-12.1244
ENUM	-12.1251
outputFile	-12.1251
tableDef	-12.1254
SPI	-12.1259
currentWord	-12.1271
support	-12.1279
exist	-12.1287
▁processInstance	-12.1287
jobSpec	-12.1291
receive	-12.1304
StateChange	-12.1307
▁iface	-12.1317
tip	-12.1323
nnectedException	-12.1325
Superclass	-12.1325
Stateful	-12.1327
▁NotCo	-12.1338
▁deleteresource	-12.1343
arrow	-12.1348
Searcher	-12.1349
absolutePath	-12.1351
findOne	-12.1354
▁Datagram	-12.136
readFields	-12.1364
nextDouble	-12.1366
Allocate	-12.1367
TableMetadata	-12.137
ordered	-12.1377
revision	-12.1378
numCoords	-12.138
Authenticator	-12.138
Rollout	-12.138
Social	-12.138
DoesNotExist	-12.138
EXTENDED	-12.138
TiffTags	-12.138
ontology	-12.138
▁diagram	-12.138
Exceeded	-12.138
Expiry	-12.138
Identifiable	-12.138
Skeleton	-12.138
correlationId	-12.138
inclusive	-12.138
ENGINE	-12.138
Sequential	-12.138
mitiveInvalidity	-12.138
▁changing	-12.138
Swagger	-12.138
▁BusPr	-12.138
jobFlowInstances	-12.138
collapse	-12.138
slash	-12.138
lazy	-12.1381
STACK	-12.1381
Alluxio	-12.1381
▁traverser	-12.1381
pull	-12.1381
▁predicted	-12.1381
Bookmark	-12.1381
POSITE	-12.1381
positive	-12.1381
Committed	-12.1382
revoke	-12.1382
glob	-12.1382
CompilationUnit	-12.1382
letter	-12.1383
small	-12.1383
oper	-12.1384
Drawer	-12.1385
Rich	-12.1385
Rejected	-12.1386
▁ValueComparator	-12.1386
DAV	-12.1388
Storm	-12.1388
ganizationalUnit	-12.1388
Azure	-12.1389
Unary	-12.1389
ZoomLevel	-12.139
▁wrt	-12.139
XSLT	-12.1392
Encrypted	-12.1395
QUALITY	-12.1395
drag	-12.1396
spinner	-12.1397
ToUse	-12.1397
▁messageDigest	-12.1399
▁IntStream	-12.14
bytesRead	-12.14
▁larger	-12.1401
CompositeNode	-12.1408
Granted	-12.141
ipaddress	-12.1411
MaxAge	-12.1413
extend	-12.1414
sCharacterId	-12.1415
SPARSE	-12.1417
▁THE	-12.1417
interaction	-12.1423
raid	-12.1426
cost	-12.1428
anim	-12.1432
RightChild	-12.1434
fontSize	-12.1436
JWT	-12.1436
Jid	-12.1437
DER	-12.1437
▁httpResponse	-12.1438
markup	-12.1439
▁made	-12.144
FileExtension	-12.1444
Freq	-12.1444
CharArray	-12.1449
JobInner	-12.1449
RunState	-12.145
▁')'	-12.1451
May	-12.1458
DeletedKey	-12.1459
subscriber	-12.1463
▁argout	-12.1464
srcMem	-12.1467
▁complex	-12.147
▁expectedValue	-12.1475
ersistenceBroker	-12.1479
aligned	-12.1482
keywords	-12.1484
StoreResource	-12.1488
GeometryIndex	-12.1495
▁OvhTask	-12.1505
rightChild	-12.1505
▁repositoryName	-12.1509
▁maxY	-12.1529
bitCount	-12.153
anConsume	-12.1538
▁tau	-12.1546
spanEnd	-12.1547
getWrapped	-12.1556
Cond	-12.1557
▁genericType	-12.1559
Caused	-12.1569
readEntity	-12.157
▁'%'	-12.1582
("]"	-12.1586
EndpointInfo	-12.1595
****************	-12.16
▁authenticated	-12.1603
mapWidget	-12.161
subnet	-12.1625
ITER	-12.163
GroupMember	-12.1633
topLevel	-12.1638
Reaction	-12.1643
HeaderNames	-12.1649
Manage	-12.1658
Phone	-12.1659
jndi	-12.1664
ecurityException	-12.1664
storeName	-12.1667
zipFile	-12.1669
Subtype	-12.1672
MILLISECOND	-12.1674
Choose	-12.1674
CmsGroup	-12.1676
MANAGE	-12.1679
White	-12.168
Rewrite	-12.1682
Assistant	-12.1683
对	-12.1683
compensation	-12.1683
使用	-12.1683
这	-12.1683
TENSOR	-12.1683
citygml	-12.1683
BREAK	-12.1683
Sphere	-12.1683
commerceShipping	-12.1683
生成	-12.1683
Comma	-12.1683
Hessian	-12.1683
Hole	-12.1683
Pressed	-12.1683
Singular	-12.1683
SmushingRule	-12.1683
earliest	-12.1683
purchase	-12.1683
surrogate	-12.1683
themeResourceId	-12.1683
▁bRelationKnown	-12.1683
▁diameter	-12.1683
Collision	-12.1683
NANOSECONDS	-12.1683
challenge	-12.1683
▁watermark	-12.1683
Azkaban	-12.1683
PATCH	-12.1683
readableBytes	-12.1683
third	-12.1683
COPY	-12.1683
▁SecretKeySpec	-12.1683
▁cnfe	-12.1683
▁why	-12.1683
Citation	-12.1683
SMALL	-12.1683
▁Tmdb	-12.1683
▁'}'	-12.1683
skew	-12.1683
AGENT	-12.1683
SpecialReview	-12.1683
supportedCiphers	-12.1684
▁'?'	-12.1684
VARCHAR	-12.1684
SizeInBytes	-12.1684
▁RectF	-12.1684
AlreadyExists	-12.1684
water	-12.1685
▁udp	-12.1685
▁workbook	-12.1685
==-1)	-12.1686
trust	-12.1686
Customizer	-12.1686
Stopping	-12.1687
▁sipApplication	-12.1687
KEYWORD	-12.1688
COMPAR	-12.1688
Credit	-12.1688
GRAN	-12.1689
▁ServiceLoader	-12.1689
grp	-12.1691
▁hmac	-12.1691
xxx	-12.1692
CmdLine	-12.1693
broadcast	-12.1693
1900	-12.1694
rotation	-12.1694
envelope	-12.1694
manifest	-12.1694
threshold	-12.1694
strategy	-12.1695
AddressRel	-12.1695
utomationAccount	-12.1695
will	-12.1696
Gray	-12.1696
▁odd	-12.17
Detected	-12.1705
▁needle	-12.1705
▁acquired	-12.1709
▁please	-12.1712
ENV	-12.1712
MINUTES	-12.1713
GONE	-12.1713
ScanResult	-12.1717
EditLog	-12.1719
▁'<'	-12.1721
ToShow	-12.1722
2000	-12.1725
▁published	-12.173
renderer	-12.1731
SymbolTable	-12.1732
▁bbox	-12.1733
ransac	-12.1735
Grpc	-12.1739
Marked	-12.1741
CHARS	-12.1741
concatMap	-12.1745
callable	-12.1747
WorkerInfo	-12.175
Recycl	-12.1753
▁renderContext	-12.1755
binarySearch	-12.1758
▁accepted	-12.1759
Never	-12.1759
OutputKey	-12.176
recover	-12.1768
may	-12.1769
REVIEW	-12.1771
▁'('	-12.1774
ULocale	-12.1775
tracking	-12.1779
Chunked	-12.178
tsym	-12.178
postag	-12.1787
▁classWriter	-12.1791
lationalDatabase	-12.1792
mdc	-12.1792
▁appro	-12.1793
pub	-12.18
webApp	-12.1806
decoded	-12.1807
BackgroundColor	-12.181
▁reported	-12.1817
helm	-12.1825
deregister	-12.1826
Yes	-12.1837
CheckResult	-12.1841
rowJ	-12.1842
HttpSession	-12.186
RING	-12.1863
WEST	-12.1883
UserAttributes	-12.1885
("0"	-12.1886
Computer	-12.1898
executeAsync	-12.1907
svc	-12.1932
MOR	-12.1936
checkbox	-12.1937
▁cpOption	-12.194
chargingStation	-12.1942
LatLng	-12.1947
writeUTF	-12.1948
corner	-12.1958
OrEqual	-12.1963
containerId	-12.1963
SimpleType	-12.1966
Each	-12.1967
EAR	-12.1969
IsNull	-12.1971
isAbstract	-12.1973
114	-12.1986
Deliver	-12.199
解	-12.1996
telephony	-12.1996
tunnel	-12.1996
CONDITION	-12.1996
eclipse	-12.1996
morph	-12.1996
以	-12.1996
CLUSTER	-12.1996
Coefficient	-12.1996
▁aEasterSunday	-12.1996
し	-12.1996
('\''	-12.1996
Bitfinex	-12.1996
INCREMENT	-12.1996
Initializing	-12.1996
Multiplier	-12.1996
Mutex	-12.1996
ProcessAdvice	-12.1996
STOPPED	-12.1996
reenPepperServer	-12.1996
rustedAdvisor	-12.1996
synonym	-12.1996
▁earlier	-12.1996
DIALOG	-12.1996
KILL	-12.1996
Kripton	-12.1996
snippet	-12.1996
velocity	-12.1996
FORWARD	-12.1996
factoryAppBeans	-12.1996
▁sdkHeaders	-12.1996
tabbedPane	-12.1996
JSDocInfo	-12.1996
middleware	-12.1996
vaultName	-12.1996
▁tmdb	-12.1996
During	-12.1996
getScreenField	-12.1996
MTAS	-12.1996
STAGE	-12.1996
Manual	-12.1996
▁BoxRequests	-12.1997
IEntityGroup	-12.1997
▁daylight	-12.1997
Subtract	-12.1997
XXX	-12.1997
RUNTIME	-12.1997
Prime	-12.1997
Lowest	-12.1997
PopupMenu	-12.1998
▁PortalException	-12.1998
MsgPhrase	-12.1998
PROCESSING	-12.1998
ZWave	-12.1999
LND	-12.1999
▁IntTuple	-12.1999
▁Sftp	-12.2
Dsl	-12.2
crud	-12.2001
▁skipping	-12.2001
CMP	-12.2001
▁few	-12.2002
DETAILS	-12.2002
MotionEvent	-12.2002
▁"|"	-12.2003
▁errMsg	-12.2003
▁zos	-12.2007
▁SISession	-12.2009
▁outbound	-12.2011
Subspace	-12.2011
▁acceptor	-12.2012
stopwatch	-12.2013
repeat	-12.2015
resume	-12.2015
dialect	-12.2015
alignment	-12.2016
▁TypeInformation	-12.2016
▁insn	-12.2017
Conv	-12.2017
maybe	-12.2017
CertificateOrder	-12.2017
nested	-12.2017
getContentLength	-12.2018
getRequestURI	-12.2018
DatePicker	-12.202
through	-12.202
MemorySegment	-12.2021
team	-12.2021
closeConnection	-12.2021
isSingle	-12.2025
▁JButton	-12.2027
connector	-12.2028
▁prefixes	-12.2028
BlockMeta	-12.2029
▁JLabel	-12.203
▁ObjectAnimator	-12.2031
iteration	-12.2031
GSS	-12.2032
wipe	-12.2032
overwrite	-12.2033
parameterTypes	-12.2033
easonPhrase	-12.2036
HOURS	-12.2036
▁linear	-12.2039
dInstanceState	-12.2043
CryptoKey	-12.2043
CPDefinitionLink	-12.2049
tworkWatcherName	-12.2056
▁10000	-12.2056
CmsContextMenu	-12.2058
undeploy	-12.2058
tmpDir	-12.2071
Located	-12.2074
Zk	-12.2081
isStarted	-12.2086
LocalService	-12.2087
doOn	-12.2089
IDLE	-12.2111
Cql	-12.2112
setAlignment	-12.2113
OutputDir	-12.212
160	-12.2129
pdf	-12.2131
isLetter	-12.2135
▁publisher	-12.2145
inputShape	-12.2147
TimeOut	-12.215
▁tbl	-12.2173
actualValue	-12.2174
NotExist	-12.2175
WindowState	-12.2177
RowKey	-12.2184
InputHandler	-12.2205
SuperType	-12.2205
ENCE	-12.221
Fit	-12.221
DeviceDefinition	-12.222
Degree	-12.2226
sslConfig	-12.2232
aking	-12.2233
align	-12.2235
ENC	-12.2248
▁preserve	-12.2262
▁reach	-12.2283
XPathContext	-12.2284
CLI	-12.2303
decrease	-12.2305
Drive	-12.2307
Interrupt	-12.2308
NamespaceContext	-12.231
RLP	-12.231
▁reserve	-12.2312
Walk	-12.2312
Thin	-12.2314
observation	-12.2316
Monetary	-12.2318
Discrete	-12.2318
了	-12.2318
Parcelable	-12.2318
Gobblin	-12.2318
Gravity	-12.2318
calculator	-12.2318
natural	-12.2318
Approval	-12.2318
CONTINUE	-12.2318
Characteristic	-12.2318
FQN	-12.2318
RADIUS	-12.2318
STRATEGY	-12.2318
Symmetry	-12.2318
Tunnel	-12.2318
WaterMark	-12.2318
deleteOnExit	-12.2318
▁ndFl	-12.2318
Corrupt	-12.2318
PERIOD	-12.2318
SPLIT	-12.2318
VpnGateway	-12.2318
jenkins	-12.2318
▁chosen	-12.2318
▁updating	-12.2318
▁verification	-12.2318
CloudSpanner	-12.2318
FunctionalTerm	-12.2318
Leave	-12.2318
abbrev	-12.2318
Forecast	-12.2318
rewind	-12.2318
▁BiConsumer	-12.2318
Arbitra	-12.2318
段	-12.2318
Beginning	-12.2318
TRACK	-12.2318
decorate	-12.2318
-2$	-12.2318
identityHashCode	-12.2318
▁volatile	-12.2318
CQL	-12.2319
▁TTIOException	-12.2319
Authorizer	-12.2319
yaml	-12.2319
Authorities	-12.2319
Spider	-12.2319
▁JAXBContext	-12.2319
▁ImageGray	-12.2319
Cfg	-12.2319
BackupVault	-12.2319
bigDecimal	-12.2319
antlr	-12.2319
Swing	-12.232
FORMATTER	-12.232
Intersection	-12.232
▁interest	-12.232
Both	-12.232
▁thus	-12.2321
▁rslt	-12.2322
Successfully	-12.2322
ScheduledFuture	-12.2323
▁"@"	-12.2323
Notifier	-12.2323
▁ImageIO	-12.2324
Traverser	-12.2324
FullyQualified	-12.2324
evaluationTime	-12.2324
(')')	-12.2325
▁IoUtil	-12.2326
pfl	-12.2326
RateLimit	-12.2326
SELECTED	-12.2327
portletWindowId	-12.2327
Polyline	-12.2328
BUF	-12.2329
Terminated	-12.233
deny	-12.233
setOwner	-12.2331
▁logged	-12.2332
▁tier	-12.2332
navigation	-12.2332
DataStoreFactory	-12.2334
xslt	-12.2334
signum	-12.2335
websocket	-12.2337
FleetRequest	-12.2339
partial	-12.234
ControlAdapter	-12.2341
▁past	-12.2342
MultiPolygon	-12.2342
Trusted	-12.2342
AnnotatedElement	-12.2343
Aligned	-12.2343
Jinx	-12.2343
privateKey	-12.2344
▁';'	-12.2344
EXC	-12.2346
INTER	-12.2349
heartbeat	-12.2349
blank	-12.2349
▁persisted	-12.2349
series	-12.2349
handshake	-12.235
Amazon	-12.235
populate	-12.2351
disk	-12.2351
specified	-12.2352
SegmentEntryRel	-12.2352
FontMetrics	-12.2354
injector	-12.2354
unwrap	-12.2356
backend	-12.2359
executorService	-12.2363
attributeValues	-12.2364
NumericValue	-12.2367
learning	-12.2377
▁iae	-12.2381
whereClause	-12.2385
connected	-12.2388
!=0)	-12.2389
IReaction	-12.239
▁unread	-12.2391
AvailabilityZone	-12.2393
"},	-12.2395
▁Completable	-12.2396
Href	-12.2404
▁branchName	-12.2408
▁pem	-12.2414
COMPRESS	-12.2415
▁seem	-12.2418
▁stp	-12.242
stdout	-12.2421
pageSize	-12.2425
EndpointGroup	-12.2431
LocalTransaction	-12.2436
▁polling	-12.2437
unavailable	-12.2437
HttpHeader	-12.2451
ParseError	-12.2457
LayoutHelper	-12.2463
kvs	-12.2478
registerMetric	-12.2479
GeneralS	-12.2484
rial	-12.2499
Cancelled	-12.2515
ProxyInstance	-12.2521
FileAppender	-12.2522
Explorer	-12.2524
SuperColumn	-12.253
NetworkEndpoint	-12.2531
VersionRange	-12.2533
compact	-12.2536
NOTE	-12.2557
▁skin	-12.2561
hbase	-12.2574
▁die	-12.2577
▁parm	-12.2586
▁OtpErlang	-12.2589
inodes	-12.2592
nextProp	-12.2593
WAR	-12.2605
Preserve	-12.2607
fac	-12.2612
▁Bson	-12.2617
Addition	-12.2623
Jndi	-12.2627
Declare	-12.264
Pick	-12.2646
ChangedListener	-12.2649
degree	-12.2649
succeed	-12.2651
空	-12.2651
201805.	-12.2652
点	-12.2652
Conformance	-12.2652
FNLP	-12.2652
Fedora	-12.2652
Migrate	-12.2652
重	-12.2652
FORBIDDEN	-12.2652
GENERAL	-12.2652
POJO	-12.2652
Piece	-12.2652
Probabilities	-12.2652
Pseudo	-12.2652
SERIAL	-12.2652
Volatile	-12.2652
broken	-12.2652
▁Therefore	-12.2652
▁epsilon	-12.2652
Composition	-12.2652
Development	-12.2652
Glyph	-12.2652
HIDDEN	-12.2652
Infinispan	-12.2652
Intermediate	-12.2652
Libraries	-12.2652
Middleware	-12.2652
NORTH	-12.2652
Picture	-12.2652
RESERVED	-12.2652
SHUTDOWN	-12.2652
SONAR	-12.2652
applicable	-12.2652
geometries	-12.2652
▁Citrus	-12.2652
新	-12.2652
长度	-12.2652
Deterministic	-12.2652
Dummy	-12.2652
EMAIL	-12.2652
FAMILY	-12.2652
HISTORY	-12.2652
Hydrogen	-12.2652
Rolling	-12.2652
SCHEDULE	-12.2652
SUMMARY	-12.2652
exponent	-12.2652
が	-12.2652
Challenge	-12.2652
Dash	-12.2652
Recurrence	-12.2652
Unauthorized	-12.2652
▁debugging	-12.2652
retention	-12.2652
FREE	-12.2652
TRANSFORM	-12.2652
PAYLOAD	-12.2652
awaitTermination	-12.2652
▁persistenceUnit	-12.2652
vlan	-12.2652
protocolDataUnit	-12.2652
percentage	-12.2652
setConstraintMin	-12.2652
VoiceConnector	-12.2653
Spinner	-12.2653
PollingStrategy	-12.2653
ptAln	-12.2653
measurement	-12.2653
Slop	-12.2653
XSD	-12.2654
▁SortedMap	-12.2654
xyz	-12.2654
blacklist	-12.2655
Overview	-12.2655
▁TAGS	-12.2656
NonZero	-12.2656
Shortcut	-12.2657
Recursively	-12.2657
minimize	-12.2659
Optimizer	-12.2659
CurrencyPair	-12.2659
smart	-12.266
Expecting	-12.266
JawrConfig	-12.2661
SerializedSize	-12.2661
ElemTemplate	-12.2663
fillRect	-12.2663
Translated	-12.2664
PlaybackState	-12.2666
inning	-12.2666
Allocated	-12.2667
TypedValue	-12.2667
Halt	-12.2667
getResponseCode	-12.2667
nonNull	-12.267
▁insertion	-12.267
CaseFormat	-12.2673
MavenProject	-12.2674
PrettyPrint	-12.2675
▁MethodSpec	-12.2676
clamp	-12.2677
CreateOrUpdate	-12.2678
▁conversationId	-12.2679
sToDelete	-12.268
("@"	-12.268
VideoFrame	-12.268
▁aSB	-12.2681
putExtra	-12.2682
▁Dbx	-12.2685
eservedInstances	-12.2686
GSSException	-12.2687
appDef	-12.2688
DateLastModified	-12.2691
bytesTo	-12.2693
containing	-12.2694
transpose	-12.2694
datePicker	-12.2694
related	-12.2695
▁initParams	-12.2695
replica	-12.2695
prefetch	-12.2697
gson	-12.2697
some	-12.27
summary	-12.27
upperBound	-12.2701
▁maxResults	-12.2702
ObjectInspector	-12.2702
ViewHolder	-12.2709
rowHead	-12.271
TransportConfig	-12.2713
RuleCall	-12.2715
▁signer	-12.2722
RouteTable	-12.2723
▁LogManager	-12.2726
PolicyTypes	-12.2726
symbolic	-12.2732
LOC	-12.2734
XAE	-12.2738
TRANS	-12.2745
nsURI	-12.2751
clientIdentity	-12.2753
Train	-12.2753
isAccessible	-12.2754
Tasklet	-12.2756
MethodInsn	-12.2782
MethodInvocation	-12.2784
currentPos	-12.2789
arch	-12.2792
taskTracker	-12.2797
▁quota	-12.2852
isLast	-12.2861
interfaceName	-12.2869
Crypt	-12.2873
cart	-12.2877
tailUrl	-12.2878
TREE	-12.288
lass	-12.288
ODocument	-12.2896
provide	-12.2898
mkdir	-12.2905
▁JsonUtil	-12.2907
HIT	-12.2916
Mill	-12.2916
prevTag	-12.2944
incr	-12.2948
minute	-12.2963
Hello	-12.2972
combo	-12.2974
IfAbsent	-12.2982
LowerCase	-12.2983
rail	-12.2984
▁portletWindow	-12.299
coding	-12.2993
Blue	-12.2996
privacy	-12.2996
成	-12.2996
HADOOP	-12.2996
FRACTION	-12.2996
HOLDER	-12.2996
符	-12.2996
Mobile	-12.2996
OCTET	-12.2996
Simon	-12.2996
draggable	-12.2996
Alternate	-12.2996
Enhanced	-12.2996
Executing	-12.2996
TransitGateway	-12.2996
UnmodifiedSince	-12.2996
Wizard	-12.2996
promotion	-12.2996
▁IRubyObject	-12.2996
▁compatibility	-12.2996
▁moving	-12.2996
ADDITIONAL	-12.2996
ARTIFACT	-12.2996
MetamodelImpl	-12.2996
MtasDataAdvanced	-12.2996
Music	-12.2996
RoadSegment	-12.2996
maturity	-12.2996
Omemo	-12.2996
Stitch	-12.2996
lexicon	-12.2996
▁Also	-12.2996
Announce	-12.2996
Optimization	-12.2996
REPOSITORY	-12.2996
Separate	-12.2996
[...]
